#include <model.h>
// We need to keep the data array aligned on some architectures.
#ifdef __has_attribute
#define HAVE_ATTRIBUTE(x) __has_attribute(x)
#else
#define HAVE_ATTRIBUTE(x) 0
#endif
#if HAVE_ATTRIBUTE(aligned) || (defined(__GNUC__) && !defined(__clang__))
#define DATA_ALIGN_ATTRIBUTE __attribute__((aligned(4)))
#else
#define DATA_ALIGN_ATTRIBUTE
#endif
extern const unsigned char g_model[] DATA_ALIGN_ATTRIBUTE = {
  0x1c, 0x00, 0x00, 0x00, 0x54, 0x46, 0x4c, 0x33, 0x00, 0x00, 0x12, 0x00,
  0x1c, 0x00, 0x04, 0x00, 0x08, 0x00, 0x0c, 0x00, 0x10, 0x00, 0x14, 0x00,
  0x00, 0x00, 0x18, 0x00, 0x12, 0x00, 0x00, 0x00, 0x03, 0x00, 0x00, 0x00,
  0x1c, 0x47, 0x00, 0x00, 0x10, 0x00, 0x00, 0x00, 0x1c, 0x00, 0x00, 0x00,
  0x2c, 0x00, 0x00, 0x00, 0x0c, 0x00, 0x00, 0x00, 0x01, 0x00, 0x00, 0x00,
  0xc0, 0x00, 0x00, 0x00, 0x01, 0x00, 0x00, 0x00, 0x94, 0x00, 0x00, 0x00,
  0x0f, 0x00, 0x00, 0x00, 0x54, 0x4f, 0x43, 0x4f, 0x20, 0x43, 0x6f, 0x6e,
  0x76, 0x65, 0x72, 0x74, 0x65, 0x64, 0x2e, 0x00, 0x0a, 0x00, 0x00, 0x00,
  0x60, 0x00, 0x00, 0x00, 0x54, 0x00, 0x00, 0x00, 0x48, 0x00, 0x00, 0x00,
  0x3c, 0x00, 0x00, 0x00, 0x34, 0x00, 0x00, 0x00, 0x2c, 0x00, 0x00, 0x00,
  0x20, 0x00, 0x00, 0x00, 0x18, 0x00, 0x00, 0x00, 0x10, 0x00, 0x00, 0x00,
  0x04, 0x00, 0x00, 0x00, 0x0e, 0xba, 0xff, 0xff, 0x38, 0x00, 0x00, 0x00,
  0xbc, 0xb9, 0xff, 0xff, 0xc0, 0xb9, 0xff, 0xff, 0x1e, 0xba, 0xff, 0xff,
  0xe0, 0x01, 0x00, 0x00, 0xcc, 0xb9, 0xff, 0xff, 0xd0, 0xb9, 0xff, 0xff,
  0x2e, 0xba, 0xff, 0xff, 0x60, 0x03, 0x00, 0x00, 0x36, 0xba, 0xff, 0xff,
  0x7c, 0x06, 0x00, 0x00, 0x3e, 0xba, 0xff, 0xff, 0x68, 0x45, 0x00, 0x00,
  0xec, 0xb9, 0xff, 0xff, 0x05, 0x00, 0x00, 0x00, 0x31, 0x2e, 0x35, 0x2e,
  0x30, 0x00, 0x00, 0x00, 0x08, 0x00, 0x0c, 0x00, 0x04, 0x00, 0x08, 0x00,
  0x08, 0x00, 0x00, 0x00, 0x08, 0x00, 0x00, 0x00, 0x09, 0x00, 0x00, 0x00,
  0x13, 0x00, 0x00, 0x00, 0x6d, 0x69, 0x6e, 0x5f, 0x72, 0x75, 0x6e, 0x74,
  0x69, 0x6d, 0x65, 0x5f, 0x76, 0x65, 0x72, 0x73, 0x69, 0x6f, 0x6e, 0x00,
  0x10, 0xfa, 0xff, 0xff, 0x20, 0x00, 0x00, 0x00, 0x14, 0x00, 0x00, 0x00,
  0x08, 0x00, 0x00, 0x00, 0x2c, 0x45, 0x00, 0x00, 0x01, 0x00, 0x00, 0x00,
  0x05, 0x00, 0x00, 0x00, 0x01, 0x00, 0x00, 0x00, 0x03, 0x00, 0x00, 0x00,
  0x08, 0x00, 0x00, 0x00, 0x04, 0x01, 0x00, 0x00, 0x9c, 0x44, 0x00, 0x00,
  0x8c, 0x00, 0x00, 0x00, 0x14, 0x00, 0x00, 0x00, 0xdc, 0x01, 0x00, 0x00,
  0x68, 0x01, 0x00, 0x00, 0x3c, 0x02, 0x00, 0x00, 0x50, 0x05, 0x00, 0x00,
  0x8e, 0xbb, 0xff, 0xff, 0x00, 0x00, 0x00, 0x03, 0x10, 0x00, 0x00, 0x00,
  0x08, 0x00, 0x00, 0x00, 0x1c, 0x00, 0x00, 0x00, 0x28, 0x00, 0x00, 0x00,
  0x04, 0x00, 0x00, 0x00, 0x01, 0x00, 0x00, 0x00, 0x31, 0x00, 0x00, 0x00,
  0x28, 0x00, 0x00, 0x00, 0x01, 0x00, 0x00, 0x00, 0x09, 0x00, 0x00, 0x00,
  0x52, 0x65, 0x73, 0x68, 0x61, 0x70, 0x65, 0x5f, 0x32, 0x00, 0x00, 0x00,
  0x94, 0xfa, 0xff, 0xff, 0x2c, 0x00, 0x00, 0x00, 0x20, 0x00, 0x00, 0x00,
  0x14, 0x00, 0x00, 0x00, 0x04, 0x00, 0x00, 0x00, 0x01, 0x00, 0x00, 0x00,
  0x00, 0x00, 0x00, 0x00, 0x00, 0x00, 0x00, 0x00, 0x01, 0x00, 0x00, 0x00,
  0xc6, 0xd0, 0xd0, 0x3d, 0x01, 0x00, 0x00, 0x00, 0xf5, 0xff, 0xcf, 0x41,
  0x01, 0x00, 0x00, 0x00, 0x00, 0x00, 0x00, 0x00, 0x02, 0xbc, 0xff, 0xff,
  0x00, 0x00, 0x00, 0x03, 0x10, 0x00, 0x00, 0x00, 0x07, 0x00, 0x00, 0x00,
  0x1c, 0x00, 0x00, 0x00, 0x24, 0x00, 0x00, 0x00, 0x04, 0x00, 0x00, 0x00,
  0x01, 0x00, 0x00, 0x00, 0x19, 0x00, 0x00, 0x00, 0x14, 0x00, 0x00, 0x00,
  0x08, 0x00, 0x00, 0x00, 0x04, 0x00, 0x00, 0x00, 0x52, 0x65, 0x6c, 0x75,
  0x00, 0x00, 0x00, 0x00, 0x04, 0xfb, 0xff, 0xff, 0x2c, 0x00, 0x00, 0x00,
  0x20, 0x00, 0x00, 0x00, 0x14, 0x00, 0x00, 0x00, 0x04, 0x00, 0x00, 0x00,
  0x01, 0x00, 0x00, 0x00, 0x00, 0x00, 0x00, 0x00, 0x00, 0x00, 0x00, 0x00,
  0x01, 0x00, 0x00, 0x00, 0xd3, 0xf6, 0x8f, 0x3d, 0x01, 0x00, 0x00, 0x00,
  0xdc, 0x66, 0x8f, 0x41, 0x01, 0x00, 0x00, 0x00, 0x00, 0x00, 0x00, 0x00,
  0x72, 0xbc, 0xff, 0xff, 0x00, 0x00, 0x00, 0x02, 0x10, 0x00, 0x00, 0x00,
  0x06, 0x00, 0x00, 0x00, 0x10, 0x00, 0x00, 0x00, 0x1c, 0x00, 0x00, 0x00,
  0x01, 0x00, 0x00, 0x00, 0x08, 0x00, 0x00, 0x00, 0x0b, 0x00, 0x00, 0x00,
  0x43, 0x6f, 0x6e, 0x76, 0x32, 0x44, 0x5f, 0x62, 0x69, 0x61, 0x73, 0x00,
  0x64, 0xbc, 0xff, 0xff, 0x18, 0x00, 0x00, 0x00, 0x04, 0x00, 0x00, 0x00,
  0x01, 0x00, 0x00, 0x00, 0x00, 0x00, 0x00, 0x00, 0x00, 0x00, 0x00, 0x00,
  0x00, 0x00, 0x00, 0x00, 0x01, 0x00, 0x00, 0x00, 0xeb, 0xcc, 0xb4, 0x38,
  0x20, 0x00, 0x00, 0x00, 0x6f, 0xfc, 0xff, 0xff, 0xaf, 0xfd, 0xff, 0xff,
  0x92, 0x00, 0x00, 0x00, 0x91, 0xfc, 0xff, 0xff, 0x41, 0x00, 0x00, 0x00,
  0x00, 0x00, 0x00, 0x00, 0x07, 0xff, 0xff, 0xff, 0x0f, 0x00, 0x00, 0x00,
  0xea, 0xbc, 0xff, 0xff, 0x00, 0x00, 0x00, 0x03, 0x10, 0x00, 0x00, 0x00,
  0x05, 0x00, 0x00, 0x00, 0x14, 0x00, 0x00, 0x00, 0x24, 0x00, 0x00, 0x00,
  0x02, 0x00, 0x00, 0x00, 0x01, 0x00, 0x00, 0x00, 0x04, 0x00, 0x00, 0x00,
  0x0e, 0x00, 0x00, 0x00, 0x6c, 0x61, 0x62, 0x65, 0x6c, 0x73, 0x5f, 0x73,
  0x6f, 0x66, 0x74, 0x6d, 0x61, 0x78, 0x00, 0x00, 0xec, 0xfb, 0xff, 0xff,
  0x2c, 0x00, 0x00, 0x00, 0x20, 0x00, 0x00, 0x00, 0x14, 0x00, 0x00, 0x00,
  0x04, 0x00, 0x00, 0x00, 0x01, 0x00, 0x00, 0x00, 0x00, 0x00, 0x00, 0x00,
  0x00, 0x00, 0x00, 0x00, 0x01, 0x00, 0x00, 0x00, 0x00, 0x00, 0x80, 0x3b,
  0x01, 0x00, 0x00, 0x00, 0x00, 0x00, 0x7f, 0x3f, 0x01, 0x00, 0x00, 0x00,
  0x00, 0x00, 0x00, 0x00, 0x5a, 0xbd, 0xff, 0xff, 0x00, 0x00, 0x00, 0x03,
  0x10, 0x00, 0x00, 0x00, 0x04, 0x00, 0x00, 0x00, 0x14, 0x00, 0x00, 0x00,
  0x1c, 0x00, 0x00, 0x00, 0x02, 0x00, 0x00, 0x00, 0x01, 0x00, 0x00, 0x00,
  0x04, 0x00, 0x00, 0x00, 0x05, 0x00, 0x00, 0x00, 0x61, 0x64, 0x64, 0x5f,
  0x31, 0x00, 0x00, 0x00, 0x54, 0xfc, 0xff, 0xff, 0x2c, 0x00, 0x00, 0x00,
  0x20, 0x00, 0x00, 0x00, 0x14, 0x00, 0x00, 0x00, 0x04, 0x00, 0x00, 0x00,
  0x01, 0x00, 0x00, 0x00, 0x85, 0x00, 0x00, 0x00, 0x00, 0x00, 0x00, 0x00,
  0x01, 0x00, 0x00, 0x00, 0x1f, 0xeb, 0xce, 0x3d, 0x01, 0x00, 0x00, 0x00,
  0x1a, 0x38, 0x45, 0x41, 0x01, 0x00, 0x00, 0x00, 0x4e, 0x00, 0x57, 0xc1,
  0xc2, 0xbd, 0xff, 0xff, 0x00, 0x00, 0x00, 0x03, 0x10, 0x00, 0x00, 0x00,
  0x03, 0x00, 0x00, 0x00, 0x1c, 0x00, 0x00, 0x00, 0x44, 0x00, 0x00, 0x00,
  0x04, 0x00, 0x00, 0x00, 0x01, 0x00, 0x00, 0x00, 0x0a, 0x00, 0x00, 0x00,
  0x08, 0x00, 0x00, 0x00, 0x08, 0x00, 0x00, 0x00, 0x25, 0x00, 0x00, 0x00,
  0x77, 0x65, 0x69, 0x67, 0x68, 0x74, 0x73, 0x5f, 0x71, 0x75, 0x61, 0x6e,
  0x74, 0x2f, 0x46, 0x61, 0x6b, 0x65, 0x51, 0x75, 0x61, 0x6e, 0x74, 0x57,
  0x69, 0x74, 0x68, 0x4d, 0x69, 0x6e, 0x4d, 0x61, 0x78, 0x56, 0x61, 0x72,
  0x73, 0x00, 0x00, 0x00, 0xe4, 0xfc, 0xff, 0xff, 0x30, 0x00, 0x00, 0x00,
  0x24, 0x00, 0x00, 0x00, 0x18, 0x00, 0x00, 0x00, 0x04, 0x00, 0x00, 0x00,
  0x01, 0x00, 0x00, 0x00, 0x7f, 0x00, 0x00, 0x00, 0x00, 0x00, 0x00, 0x00,
  0x00, 0x00, 0x00, 0x00, 0x01, 0x00, 0x00, 0x00, 0x93, 0xa7, 0x5d, 0x3a,
  0x01, 0x00, 0x00, 0x00, 0xc7, 0x4b, 0xdd, 0x3d, 0x01, 0x00, 0x00, 0x00,
  0xc0, 0x8c, 0xda, 0xbd, 0x80, 0x02, 0x00, 0x00, 0x81, 0x93, 0xae, 0x9d,
  0x6a, 0x59, 0x5e, 0x93, 0x3e, 0x60, 0x8f, 0x92, 0x7e, 0x60, 0xa9, 0x7e,
  0x98, 0x80, 0xad, 0xb5, 0xa8, 0x68, 0xb8, 0x7c, 0x78, 0x63, 0x73, 0x64,
  0xa6, 0x98, 0xb6, 0x77, 0xa2, 0x5c, 0xa5, 0xa8, 0x7d, 0x56, 0x8e, 0x5d,
  0x86, 0x7a, 0x62, 0x56, 0x8a, 0x82, 0x73, 0x61, 0xa7, 0x50, 0xa5, 0x8c,
  0x64, 0x66, 0x38, 0x4a, 0x85, 0x61, 0x63, 0x37, 0x7e, 0x75, 0x67, 0x5f,
  0xa8, 0xc8, 0xb3, 0x7a, 0x63, 0x61, 0x6f, 0xa5, 0x51, 0x81, 0x7b, 0x7e,
  0x7c, 0x79, 0xa9, 0x83, 0xc0, 0x9d, 0xb5, 0xc3, 0x94, 0x76, 0xb8, 0x76,
  0x7c, 0x67, 0x69, 0x66, 0xb2, 0xaa, 0xb4, 0x76, 0xa2, 0x6e, 0x90, 0xcd,
  0x74, 0x5a, 0x84, 0x5e, 0x70, 0x83, 0x77, 0x60, 0x8e, 0x92, 0x61, 0x6a,
  0x96, 0x4a, 0x95, 0xa4, 0x6a, 0x79, 0x2b, 0x41, 0x64, 0x68, 0x74, 0x3d,
  0x7f, 0x7b, 0x63, 0x4c, 0xce, 0xdc, 0x92, 0x52, 0x6e, 0x69, 0x75, 0x8f,
  0x6c, 0x73, 0x69, 0x6d, 0x64, 0x79, 0xa5, 0x97, 0xd0, 0xaa, 0x8d, 0xb6,
  0x8e, 0x8f, 0xa7, 0x7a, 0x6d, 0x66, 0x62, 0x68, 0xa3, 0xac, 0xae, 0x7c,
  0x98, 0x67, 0x85, 0xd8, 0x75, 0x5f, 0x73, 0x5b, 0x61, 0x6c, 0x5c, 0x64,
  0x7d, 0x7e, 0x60, 0x54, 0x8f, 0x38, 0x7d, 0xd3, 0x70, 0x8b, 0x15, 0x43,
  0x4f, 0x42, 0x72, 0x5a, 0x70, 0x7a, 0x5e, 0x49, 0xf4, 0xf5, 0x6b, 0x39,
  0x70, 0x67, 0x8c, 0xa3, 0x6f, 0x8f, 0x5b, 0x54, 0x64, 0x84, 0xb3, 0xab,
  0xd3, 0xbe, 0x54, 0xb1, 0x92, 0x82, 0xb2, 0x9a, 0x68, 0x6c, 0x55, 0x61,
  0x9f, 0xa5, 0xb9, 0xba, 0x98, 0x6a, 0x5c, 0xdf, 0x70, 0x60, 0x63, 0x84,
  0x59, 0x77, 0x4e, 0x65, 0x7c, 0x83, 0x6a, 0x87, 0x89, 0x30, 0x5a, 0xe9,
  0x57, 0x7a, 0x01, 0x68, 0x44, 0x43, 0x5a, 0x72, 0x6f, 0x7a, 0x71, 0x73,
  0xf6, 0xee, 0x27, 0x17, 0x6a, 0x7d, 0x90, 0x8a, 0x73, 0x81, 0x38, 0x4c,
  0x61, 0x92, 0xc8, 0xa8, 0xcd, 0xde, 0x3f, 0x97, 0x8c, 0x85, 0xa2, 0x90,
  0x54, 0x5d, 0x46, 0x60, 0xb8, 0xaa, 0xac, 0xb5, 0x8e, 0x78, 0x51, 0xcf,
  0x8b, 0x52, 0x48, 0x8e, 0x61, 0x5e, 0x4f, 0x66, 0x96, 0x92, 0x5e, 0x8f,
  0x78, 0x3b, 0x5a, 0xf6, 0x6e, 0x89, 0x0c, 0x72, 0x36, 0x2e, 0x4f, 0x8a,
  0x72, 0x7b, 0x83, 0x5f, 0xff, 0xdc, 0x4b, 0x1d, 0x76, 0x71, 0xa1, 0x82,
  0x6b, 0x9a, 0x64, 0x42, 0x5f, 0x85, 0xc4, 0x98, 0xc1, 0xea, 0x6c, 0x96,
  0x8b, 0x7a, 0x92, 0x91, 0x4a, 0x64, 0x8b, 0x5c, 0xb0, 0xa8, 0x94, 0xc4,
  0x86, 0x8a, 0x93, 0xc3, 0x7b, 0x4c, 0x24, 0x9d, 0x67, 0x69, 0x9a, 0x69,
  0x96, 0x8b, 0x55, 0x92, 0x62, 0x4c, 0xa2, 0xf8, 0x7d, 0x7f, 0x40, 0x91,
  0x30, 0x26, 0x82, 0x8e, 0x7b, 0x7d, 0x89, 0x8e, 0xf0, 0xc4, 0x84, 0x26,
  0x72, 0x5b, 0x96, 0x65, 0x6d, 0x99, 0xa0, 0x42, 0x66, 0x8e, 0xae, 0x9a,
  0xc2, 0xfa, 0x9f, 0x86, 0x84, 0x7a, 0x71, 0x8d, 0x5a, 0x80, 0xb3, 0x5b,
  0xae, 0xb5, 0x7b, 0xb4, 0x7a, 0xad, 0xa4, 0xb8, 0x7f, 0x52, 0x12, 0xa3,
  0x69, 0x70, 0xbf, 0x6c, 0x98, 0x8a, 0x53, 0xa6, 0x4b, 0x61, 0xc0, 0xe6,
  0x5b, 0x81, 0x4f, 0x9a, 0x42, 0x42, 0xc2, 0x9e, 0x6c, 0x7e, 0xa0, 0x9e,
  0xd6, 0x82, 0xab, 0x3b, 0x7b, 0x69, 0x69, 0x5d, 0x7c, 0x84, 0xc5, 0x51,
  0x57, 0x8b, 0x8e, 0x69, 0xb6, 0xdf, 0x9a, 0x7c, 0x79, 0x7f, 0x4d, 0x67,
  0x5a, 0x6a, 0xca, 0x6f, 0x7e, 0xb1, 0x4e, 0x8f, 0x5e, 0xc1, 0xa7, 0xa0,
  0x7d, 0x5d, 0x23, 0x89, 0x79, 0x79, 0xc2, 0x76, 0x6c, 0x88, 0x4f, 0x89,
  0x35, 0x8d, 0xaf, 0xc4, 0x66, 0x7c, 0x57, 0x7b, 0x43, 0x4b, 0xb7, 0xa3,
  0x5c, 0x7e, 0x9f, 0x8c, 0xc6, 0x49, 0x7d, 0x3b, 0x6e, 0x4f, 0x48, 0x41,
  0x86, 0x64, 0x9c, 0x5d, 0x62, 0x85, 0x45, 0x52, 0xa8, 0xb5, 0x7f, 0x6b,
  0x72, 0x6b, 0x27, 0x48, 0x6d, 0x67, 0x85, 0x73, 0x88, 0xc2, 0x29, 0x6f,
  0x4b, 0xce, 0x5e, 0x93, 0x63, 0x5e, 0x35, 0x6c, 0x80, 0x85, 0x86, 0x75,
  0x6f, 0x9d, 0x4c, 0x7a, 0x36, 0xd3, 0x6a, 0xb3, 0x62, 0x78, 0x55, 0x5c,
  0x5d, 0x6e, 0x7b, 0xa2, 0x6a, 0x8a, 0x9a, 0x7f, 0xa1, 0x1a, 0x64, 0x3d,
  0x74, 0x38, 0x43, 0x3b, 0x95, 0x44, 0x81, 0x4b, 0x68, 0x63, 0x20, 0x4e,
  0x82, 0x7f, 0x4d, 0x70, 0x65, 0x67, 0x21, 0x62, 0x70, 0x5b, 0x64, 0x6e,
  0x88, 0xae, 0x28, 0x5e, 0x27, 0xa7, 0x39, 0x83, 0x6d, 0x54, 0x33, 0x4f,
  0x7d, 0x94, 0x72, 0x75, 0x7d, 0x92, 0x5e, 0x53, 0x3d, 0xe4, 0x4c, 0x91,
  0x6d, 0x7d, 0x57, 0x4c, 0x8e, 0x91, 0x6e, 0x97, 0x72, 0x76, 0xa4, 0x63,
  0xda, 0xc0, 0xff, 0xff, 0x00, 0x00, 0x00, 0x03, 0x10, 0x00, 0x00, 0x00,
  0x02, 0x00, 0x00, 0x00, 0x14, 0x00, 0x00, 0x00, 0x54, 0x00, 0x00, 0x00,
  0x02, 0x00, 0x00, 0x00, 0x04, 0x00, 0x00, 0x00, 0xa0, 0x0f, 0x00, 0x00,
  0x31, 0x00, 0x00, 0x00, 0x77, 0x65, 0x69, 0x67, 0x68, 0x74, 0x73, 0x5f,
  0x71, 0x75, 0x61, 0x6e, 0x74, 0x5f, 0x31, 0x2f, 0x46, 0x61, 0x6b, 0x65,
  0x51, 0x75, 0x61, 0x6e, 0x74, 0x57, 0x69, 0x74, 0x68, 0x4d, 0x69, 0x6e,
  0x4d, 0x61, 0x78, 0x56, 0x61, 0x72, 0x73, 0x2f, 0x74, 0x72, 0x61, 0x6e,
  0x73, 0x70, 0x6f, 0x73, 0x65, 0x00, 0x00, 0x00, 0x0c, 0x00, 0x14, 0x00,
  0x04, 0x00, 0x08, 0x00, 0x0c, 0x00, 0x10, 0x00, 0x0c, 0x00, 0x00, 0x00,
  0x2c, 0x00, 0x00, 0x00, 0x20, 0x00, 0x00, 0x00, 0x14, 0x00, 0x00, 0x00,
  0x04, 0x00, 0x00, 0x00, 0x01, 0x00, 0x00, 0x00, 0x7b, 0x00, 0x00, 0x00,
  0x00, 0x00, 0x00, 0x00, 0x01, 0x00, 0x00, 0x00, 0xec, 0x41, 0xc9, 0x39,
  0x01, 0x00, 0x00, 0x00, 0x7a, 0x82, 0x4f, 0x3d, 0x01, 0x00, 0x00, 0x00,
  0x57, 0xdc, 0x3f, 0xbd, 0x80, 0x3e, 0x00, 0x00, 0x95, 0x4a, 0x66, 0x7b,
  0x9a, 0x6f, 0x5b, 0x71, 0x7a, 0x6e, 0x5c, 0x6a, 0x88, 0x77, 0x92, 0x66,
  0x95, 0x6c, 0x64, 0x95, 0x72, 0x35, 0x8b, 0x67, 0xa9, 0x62, 0x49, 0x74,
  0xa2, 0x74, 0x8a, 0x7f, 0x57, 0x73, 0x41, 0x80, 0x71, 0x57, 0x4d, 0x73,
  0x72, 0x7d, 0x39, 0x80, 0x87, 0x60, 0x76, 0x8a, 0xa5, 0x6b, 0x3f, 0x57,
  0x79, 0x8d, 0x83, 0x65, 0x7d, 0x6c, 0x70, 0x81, 0xab, 0x5f, 0x74, 0x7c,
  0x78, 0x65, 0x45, 0x87, 0x83, 0x64, 0x81, 0x95, 0x7a, 0x75, 0x4e, 0x71,
  0x5c, 0x6c, 0x73, 0x67, 0x8e, 0x7b, 0x72, 0x77, 0x67, 0x64, 0x7d, 0x7d,
  0x67, 0x81, 0x43, 0x7a, 0xa1, 0x6c, 0x48, 0x8e, 0x6c, 0x7b, 0x64, 0x6e,
  0xa4, 0x72, 0x68, 0x8f, 0x6c, 0x63, 0x7b, 0x8f, 0x80, 0x74, 0x67, 0x56,
  0x8c, 0x7b, 0x6d, 0x9a, 0x89, 0x7a, 0x92, 0x58, 0x79, 0x68, 0x77, 0x98,
  0x85, 0x94, 0x95, 0xa6, 0x83, 0x79, 0x92, 0x80, 0x67, 0xa5, 0x56, 0x9d,
  0x82, 0x82, 0x7c, 0xa3, 0x6c, 0x68, 0x6c, 0x76, 0x8a, 0x80, 0x50, 0x8c,
  0x70, 0xa3, 0x91, 0x90, 0x85, 0x7b, 0x69, 0x63, 0x5b, 0x9c, 0x8e, 0x96,
  0x7a, 0x81, 0x45, 0x86, 0x5d, 0x77, 0x85, 0x80, 0x98, 0x4b, 0x49, 0x77,
  0x7c, 0x6a, 0x81, 0x7b, 0x7f, 0x6a, 0x64, 0x91, 0x5f, 0x43, 0x77, 0x85,
  0x8c, 0x46, 0x50, 0x72, 0x95, 0x38, 0x84, 0x5e, 0x66, 0x67, 0x60, 0x99,
  0x72, 0x45, 0x74, 0x6e, 0xab, 0x5b, 0x59, 0x7d, 0x79, 0x64, 0x7c, 0x68,
  0x82, 0x74, 0x43, 0x86, 0x93, 0x58, 0x83, 0x76, 0x86, 0x65, 0x5f, 0xb3,
  0x9f, 0x8b, 0x6e, 0x5a, 0x86, 0x6a, 0x3d, 0x69, 0x8c, 0x65, 0x76, 0x65,
  0x79, 0x7e, 0x8b, 0x7a, 0x87, 0x5b, 0x56, 0x79, 0x90, 0x72, 0x83, 0xc2,
  0x49, 0x72, 0x62, 0x70, 0x8c, 0x74, 0x77, 0x97, 0x77, 0x6e, 0x73, 0x60,
  0x8c, 0x6e, 0x6b, 0x8d, 0x81, 0x5d, 0x8c, 0x62, 0x9b, 0x6b, 0x54, 0xa8,
  0x6a, 0x7b, 0x4b, 0x87, 0x6a, 0x64, 0x70, 0x8a, 0x5b, 0x8c, 0x75, 0x81,
  0x7c, 0x62, 0x81, 0x94, 0x8f, 0x75, 0x93, 0xa0, 0x69, 0x78, 0x4b, 0x69,
  0x71, 0x55, 0x84, 0x66, 0x6f, 0x7d, 0x7a, 0xa6, 0xa2, 0x62, 0x73, 0x96,
  0x7d, 0x74, 0x8a, 0x71, 0x6f, 0x97, 0x8f, 0x89, 0x88, 0x78, 0x65, 0x69,
  0x65, 0x52, 0x84, 0x85, 0x58, 0x8a, 0x8e, 0x7b, 0xa8, 0x61, 0x76, 0x8b,
  0x8b, 0x6b, 0xa3, 0x83, 0x64, 0x3e, 0x8d, 0x6c, 0x8e, 0x68, 0x82, 0x82,
  0x97, 0x82, 0x65, 0x90, 0x63, 0x44, 0x62, 0xaa, 0x7a, 0x9f, 0x7a, 0x52,
  0x77, 0x3c, 0x91, 0x93, 0x59, 0x76, 0xa3, 0x6e, 0x43, 0x31, 0x86, 0xa0,
  0x6f, 0x81, 0x60, 0x76, 0x7d, 0x54, 0x96, 0xa2, 0x98, 0x54, 0x8d, 0x98,
  0x41, 0x4f, 0x94, 0x89, 0xac, 0x45, 0x5e, 0x54, 0x66, 0x79, 0x81, 0x8f,
  0x54, 0x51, 0x7d, 0x54, 0x72, 0x60, 0x89, 0xa7, 0x6e, 0x66, 0x73, 0x75,
  0x64, 0x6f, 0x8f, 0xa7, 0x5e, 0x66, 0x7a, 0x7c, 0x7e, 0x75, 0x63, 0xa1,
  0x68, 0x4a, 0x86, 0x86, 0x7e, 0x52, 0x8f, 0xab, 0x7b, 0x71, 0x79, 0x50,
  0x7e, 0x49, 0x9a, 0xbd, 0x7a, 0x89, 0x74, 0x82, 0x79, 0x55, 0x8b, 0xb2,
  0x7d, 0x7b, 0x82, 0x6d, 0x7b, 0x79, 0x7a, 0xab, 0xaa, 0x5e, 0x82, 0x7f,
  0x78, 0x7d, 0xa3, 0xa3, 0x8d, 0x75, 0x93, 0x7a, 0x6b, 0x87, 0xb6, 0x91,
  0x9a, 0x96, 0x8c, 0x76, 0x76, 0x87, 0x6a, 0xa1, 0x6a, 0x70, 0x8b, 0x7b,
  0x83, 0x7f, 0x68, 0x71, 0x8a, 0x5f, 0x77, 0x73, 0x62, 0x82, 0x76, 0x68,
  0x5f, 0x81, 0x5c, 0x68, 0x7a, 0x52, 0x9b, 0x7a, 0x89, 0x7f, 0x72, 0x8a,
  0x79, 0x51, 0xbb, 0x80, 0x84, 0x62, 0x5d, 0x71, 0x52, 0x38, 0xb2, 0x61,
  0x6b, 0x65, 0x73, 0x82, 0x7c, 0x3e, 0x8a, 0x5c, 0x83, 0x48, 0x53, 0x94,
  0x59, 0x2b, 0xae, 0x81, 0x89, 0x89, 0x61, 0x54, 0x5e, 0x6d, 0xb0, 0x5c,
  0x7c, 0x82, 0x93, 0x59, 0x64, 0x43, 0x95, 0x8b, 0xa1, 0x6a, 0x7c, 0x67,
  0x4d, 0x4f, 0x6c, 0x84, 0x72, 0x7a, 0x6a, 0x70, 0x5f, 0x72, 0x9e, 0x75,
  0xa5, 0x85, 0x7c, 0x51, 0x38, 0x60, 0x85, 0x88, 0x76, 0x5e, 0x84, 0x64,
  0x65, 0x8c, 0xa5, 0x7d, 0x6d, 0x81, 0x72, 0xa4, 0x86, 0x74, 0xa9, 0x96,
  0x9a, 0x90, 0xa0, 0x8d, 0x5a, 0x5e, 0x92, 0x99, 0x9f, 0x83, 0x6a, 0x99,
  0x6b, 0x90, 0x82, 0x84, 0x8d, 0x7f, 0x92, 0x97, 0x77, 0x7d, 0xb5, 0x79,
  0x70, 0x84, 0x68, 0x74, 0x5f, 0x86, 0x6c, 0x59, 0x74, 0x62, 0x8f, 0x9c,
  0x33, 0x91, 0x81, 0x57, 0x7f, 0x9a, 0x66, 0x7a, 0x7d, 0x78, 0x6e, 0x83,
  0xa0, 0x8b, 0x9b, 0xa2, 0x7c, 0x83, 0x91, 0x75, 0x7b, 0x68, 0x97, 0x7f,
  0x9d, 0x44, 0x86, 0x6e, 0x96, 0x64, 0x83, 0x90, 0x81, 0x84, 0x95, 0x72,
  0x82, 0x81, 0x65, 0x77, 0x6d, 0x31, 0xae, 0x55, 0x6c, 0x71, 0x69, 0x76,
  0x55, 0x3e, 0x8e, 0x66, 0x77, 0x85, 0x7b, 0x74, 0x53, 0x4a, 0x99, 0x53,
  0x77, 0x92, 0x4a, 0xa7, 0x60, 0x68, 0x7f, 0x58, 0x4e, 0xae, 0x94, 0x7c,
  0x44, 0x79, 0x81, 0x6e, 0x7f, 0xa9, 0x50, 0x62, 0x39, 0x77, 0x68, 0x56,
  0x92, 0xaa, 0x5c, 0x8a, 0x48, 0x57, 0x86, 0x6c, 0x7d, 0x90, 0x6f, 0x8d,
  0x66, 0x76, 0x91, 0x65, 0x7b, 0x8f, 0x4b, 0x7c, 0x65, 0x84, 0x96, 0x6a,
  0x70, 0x8e, 0x5f, 0x8d, 0x34, 0x81, 0x95, 0x8b, 0x4e, 0x86, 0x7d, 0x5f,
  0x54, 0x82, 0x95, 0x8d, 0x6b, 0xba, 0x4f, 0x79, 0x4e, 0x79, 0x80, 0x94,
  0x7b, 0x90, 0x79, 0x70, 0x3c, 0x6f, 0xae, 0x65, 0x7e, 0x8b, 0x7e, 0x89,
  0x4c, 0x61, 0x9c, 0x58, 0x60, 0x93, 0x96, 0x5d, 0x4b, 0x83, 0x82, 0x67,
  0x95, 0xac, 0x62, 0x90, 0x2c, 0x78, 0xbf, 0x49, 0x80, 0xa9, 0xa6, 0x5b,
  0x72, 0x67, 0xa5, 0x73, 0x6a, 0xa0, 0x6d, 0x62, 0x6c, 0x8f, 0x70, 0x5a,
  0xaf, 0x88, 0x96, 0x86, 0x5d, 0x90, 0x7f, 0x59, 0x7c, 0x8b, 0xa1, 0xa5,
  0x75, 0x61, 0x76, 0x3d, 0x81, 0x83, 0x41, 0x51, 0x7c, 0x60, 0x83, 0x5d,
  0x49, 0x7a, 0x5e, 0x87, 0x68, 0x29, 0xae, 0x41, 0x7e, 0x8d, 0x78, 0x83,
  0x7d, 0x49, 0x82, 0x56, 0x8c, 0x63, 0x8e, 0x59, 0x47, 0x5e, 0x7e, 0x2a,
  0x7c, 0xa6, 0x77, 0x8f, 0x84, 0x6c, 0x99, 0x58, 0x60, 0x83, 0x77, 0x60,
  0x6a, 0x70, 0x77, 0x4c, 0x7e, 0xb9, 0x5b, 0x90, 0x45, 0x83, 0x98, 0x60,
  0x81, 0x88, 0x59, 0x65, 0x60, 0x6d, 0x8f, 0x96, 0x78, 0x99, 0x51, 0x8e,
  0x4f, 0x8e, 0xa4, 0xaf, 0x70, 0x6e, 0x85, 0x92, 0x64, 0x81, 0xb3, 0x81,
  0x71, 0x8f, 0x64, 0x92, 0x7b, 0x5a, 0x75, 0x87, 0x78, 0x98, 0x51, 0x82,
  0x8a, 0x87, 0x86, 0x71, 0x6e, 0x7d, 0x70, 0x87, 0x4e, 0x69, 0x8f, 0x51,
  0x88, 0x79, 0x72, 0x74, 0x66, 0x6b, 0x7e, 0x3d, 0x53, 0x88, 0x83, 0x73,
  0x98, 0x89, 0x8e, 0x44, 0x78, 0xa6, 0x7b, 0x85, 0x4b, 0x50, 0x8e, 0x64,
  0x9e, 0xb3, 0x78, 0x73, 0x67, 0x78, 0xbf, 0x63, 0x7b, 0xbe, 0x6a, 0x9d,
  0x89, 0x7d, 0x8b, 0x94, 0x9f, 0x70, 0xc9, 0x94, 0x49, 0x74, 0xaf, 0x7b,
  0x72, 0x7c, 0x68, 0x71, 0x7b, 0x56, 0x91, 0x59, 0x4e, 0x86, 0x5c, 0x9b,
  0x66, 0x61, 0x93, 0x53, 0x92, 0x7c, 0x69, 0x6d, 0x56, 0x3b, 0x8e, 0x22,
  0x6e, 0x90, 0x73, 0x80, 0x6d, 0x50, 0xb8, 0x3f, 0x5c, 0x76, 0x71, 0x93,
  0x58, 0x56, 0x9c, 0x65, 0xa3, 0x92, 0x5e, 0x8e, 0x42, 0x4b, 0x7c, 0x51,
  0x8b, 0x90, 0x53, 0x6d, 0x76, 0x65, 0xb5, 0x56, 0x8d, 0x6f, 0x7b, 0x93,
  0x6a, 0x5e, 0xa3, 0x68, 0x4a, 0x6e, 0x68, 0xa0, 0x68, 0x79, 0x9e, 0x75,
  0x85, 0x83, 0x7a, 0x6f, 0x60, 0x78, 0x81, 0x94, 0x81, 0x6b, 0x9c, 0x56,
  0x67, 0x75, 0x9e, 0x5d, 0x58, 0x71, 0x81, 0x8a, 0x87, 0xb4, 0xbc, 0x64,
  0x7b, 0x63, 0x63, 0x88, 0x74, 0x8b, 0x82, 0x60, 0x80, 0xb3, 0x58, 0x83,
  0x81, 0xa3, 0xb6, 0x62, 0x62, 0x7d, 0x84, 0x89, 0x62, 0x93, 0x8a, 0x70,
  0x65, 0x62, 0x64, 0x61, 0x71, 0x90, 0xca, 0x47, 0x6c, 0x9f, 0x78, 0xa7,
  0x55, 0x66, 0xab, 0x59, 0x5a, 0x9e, 0x6f, 0xb1, 0x6f, 0x72, 0xc4, 0x8a,
  0x83, 0x84, 0x65, 0x8b, 0x77, 0x78, 0xa7, 0x79, 0x84, 0xab, 0xa1, 0x91,
  0x70, 0x8f, 0x8f, 0x72, 0x8c, 0x80, 0x6a, 0x9a, 0x65, 0x88, 0xa5, 0x42,
  0x77, 0x80, 0x47, 0x86, 0x7d, 0x53, 0x90, 0x3f, 0x52, 0x91, 0x6b, 0xb2,
  0x6b, 0x57, 0xad, 0x51, 0x7e, 0x87, 0x45, 0x5b, 0x7b, 0x24, 0x9a, 0x4a,
  0x6c, 0x77, 0x93, 0x95, 0x6b, 0x3c, 0x8e, 0x44, 0x96, 0x8b, 0x5f, 0x95,
  0x4f, 0x6d, 0x7f, 0x65, 0x48, 0x61, 0x79, 0x8b, 0x64, 0x54, 0x96, 0x3d,
  0x9a, 0x91, 0x90, 0x95, 0x6d, 0x98, 0x74, 0x73, 0x8c, 0x62, 0x51, 0x85,
  0x59, 0x54, 0xb6, 0xa3, 0x6f, 0x86, 0x78, 0x7f, 0x5b, 0x8e, 0xbc, 0x95,
  0x7d, 0x75, 0x6f, 0x80, 0x79, 0x8a, 0x95, 0x87, 0x5b, 0x6e, 0x76, 0x7e,
  0x77, 0x76, 0x9f, 0x4f, 0x9b, 0x7d, 0x88, 0x83, 0x87, 0x7b, 0xaf, 0x59,
  0x82, 0x6b, 0x7f, 0x72, 0x56, 0x77, 0x96, 0x86, 0x88, 0x7a, 0x53, 0x8d,
  0x66, 0x78, 0x90, 0x3f, 0x86, 0x7d, 0x71, 0x73, 0x39, 0x83, 0xdf, 0x55,
  0x94, 0x8e, 0x66, 0xa8, 0x72, 0x62, 0xa2, 0x5a, 0x87, 0x89, 0x55, 0x84,
  0x69, 0x7c, 0xb3, 0x8d, 0x59, 0x83, 0x85, 0x8d, 0x80, 0x53, 0xbc, 0x89,
  0xad, 0x8d, 0x98, 0x7f, 0x6b, 0x75, 0x8a, 0x6e, 0x9f, 0x6b, 0x69, 0x94,
  0x66, 0x4e, 0x67, 0x42, 0x7e, 0x80, 0x7b, 0xa1, 0x53, 0x25, 0xbb, 0x4c,
  0x5e, 0x9b, 0x42, 0x54, 0x56, 0x21, 0x9e, 0x4e, 0x9e, 0xa9, 0x56, 0x71,
  0x89, 0x66, 0x91, 0x4c, 0x76, 0x83, 0x75, 0xa6, 0x30, 0x38, 0x97, 0x2a,
  0xaf, 0x96, 0x6c, 0x7e, 0x66, 0x54, 0x9f, 0x7f, 0x4c, 0x71, 0x83, 0x78,
  0x92, 0x69, 0x92, 0x67, 0x95, 0x74, 0x53, 0x76, 0x4f, 0x59, 0xa5, 0x6e,
  0x89, 0x80, 0x59, 0x90, 0x6d, 0x5f, 0x9a, 0x92, 0x94, 0x59, 0x9b, 0x8f,
  0x7b, 0x8b, 0xb7, 0x8a, 0x4e, 0x5a, 0x7c, 0x61, 0x3c, 0x97, 0xad, 0x92,
  0xa3, 0x5a, 0x69, 0x83, 0x6c, 0x86, 0xb4, 0x66, 0x64, 0x65, 0x7f, 0x88,
  0x6c, 0x95, 0x97, 0x55, 0x95, 0x66, 0x5f, 0x7e, 0x82, 0x5d, 0x84, 0x58,
  0x86, 0x70, 0x71, 0x91, 0x81, 0x7b, 0x98, 0x44, 0x8c, 0x81, 0x75, 0x7b,
  0x5e, 0x6f, 0xb8, 0x60, 0x70, 0x78, 0x61, 0x8e, 0x44, 0x76, 0xab, 0x79,
  0x8c, 0x80, 0x6c, 0x78, 0x87, 0x6d, 0xac, 0x68, 0x9b, 0x83, 0x6d, 0xaa,
  0x81, 0x89, 0xd1, 0x93, 0x73, 0xbf, 0xa7, 0x94, 0x5a, 0x61, 0x8f, 0x67,
  0xae, 0x96, 0x80, 0xa4, 0x55, 0x66, 0x8e, 0x17, 0x59, 0x85, 0x5e, 0x7f,
  0x83, 0x54, 0x84, 0x60, 0x59, 0xa2, 0x47, 0x56, 0x8c, 0x46, 0x75, 0x26,
  0xa1, 0x87, 0x96, 0x92, 0x82, 0x36, 0xb8, 0x34, 0x46, 0x88, 0x81, 0x77,
  0x4e, 0x4c, 0xae, 0x4b, 0x6b, 0x73, 0x5e, 0x9b, 0x7c, 0x52, 0x91, 0x74,
  0xaa, 0x6e, 0x71, 0x8d, 0x5c, 0x77, 0x95, 0x5b, 0x98, 0x6b, 0x87, 0xb2,
  0x44, 0x7b, 0xaa, 0x8c, 0x9d, 0x64, 0x45, 0xa4, 0x44, 0x68, 0x88, 0x65,
  0x8c, 0x6f, 0x82, 0x82, 0x54, 0x92, 0xac, 0x6f, 0x75, 0x5a, 0x7b, 0x96,
  0x61, 0xa3, 0x6a, 0x89, 0x75, 0x69, 0x86, 0x5c, 0xa1, 0x8a, 0x88, 0x58,
  0x71, 0x87, 0x8c, 0x83, 0x7b, 0x59, 0x9e, 0x7d, 0x6d, 0x7c, 0x7d, 0x8f,
  0x6f, 0x52, 0x92, 0x65, 0x77, 0x7b, 0x65, 0x6c, 0x88, 0x56, 0xa8, 0x30,
  0x86, 0x7b, 0x6c, 0x94, 0x76, 0x6c, 0xb6, 0x59, 0x5c, 0x8e, 0x5d, 0x7f,
  0x72, 0x79, 0x91, 0x72, 0x7d, 0x65, 0x89, 0x9d, 0x6a, 0x71, 0xc2, 0x6c,
  0x9f, 0x7c, 0x91, 0xa7, 0x76, 0x79, 0xab, 0x88, 0x8a, 0x9b, 0x96, 0x84,
  0x81, 0x7f, 0xa8, 0x3e, 0x96, 0x79, 0x59, 0xa5, 0xa5, 0x71, 0xb3, 0x13,
  0x5c, 0x90, 0x49, 0x6a, 0x70, 0x62, 0x9a, 0x4a, 0x56, 0x99, 0x3a, 0x97,
  0x42, 0x56, 0x9b, 0x11, 0x70, 0xa7, 0x6a, 0x86, 0x67, 0x32, 0x94, 0x42,
  0x59, 0x91, 0x68, 0x75, 0x5e, 0x36, 0x8f, 0x24, 0x93, 0x7e, 0x8b, 0x86,
  0x5d, 0x64, 0xba, 0x86, 0x89, 0x76, 0x85, 0x87, 0x67, 0x4e, 0x93, 0x5a,
  0x80, 0x81, 0x8a, 0xa4, 0x3e, 0x6b, 0xa2, 0x90, 0x9b, 0x69, 0x84, 0x5d,
  0x69, 0x7a, 0x7b, 0x61, 0x6c, 0x7c, 0x88, 0x84, 0x5c, 0x90, 0x74, 0x9d,
  0x94, 0x4f, 0x9b, 0x98, 0x84, 0x78, 0x96, 0x65, 0x8c, 0x6d, 0x68, 0x90,
  0x4a, 0x8d, 0x9c, 0x68, 0x80, 0x6e, 0x63, 0x72, 0x96, 0x5f, 0x9e, 0x53,
  0x9c, 0x69, 0x8a, 0x8d, 0x9d, 0x55, 0xa4, 0x48, 0x53, 0x7e, 0x84, 0xaa,
  0x5f, 0x5f, 0xc4, 0x44, 0x66, 0x62, 0x72, 0x96, 0x6e, 0x7d, 0x87, 0x58,
  0x8b, 0x78, 0x8b, 0x87, 0x48, 0x73, 0x87, 0x74, 0x5b, 0x79, 0x49, 0x86,
  0x6a, 0x65, 0xba, 0x51, 0x91, 0x83, 0x80, 0xb6, 0x80, 0x7e, 0xb1, 0x86,
  0x69, 0x77, 0x91, 0x6c, 0x50, 0x71, 0x83, 0x50, 0x9b, 0xa0, 0x81, 0xad,
  0x4f, 0x8c, 0x9f, 0x19, 0x51, 0x80, 0x5e, 0x9a, 0x75, 0x39, 0x9c, 0x28,
  0x55, 0xbd, 0x65, 0x51, 0x62, 0x33, 0x6d, 0x47, 0xa2, 0x97, 0x7a, 0x8f,
  0x83, 0x55, 0xa8, 0x55, 0x5f, 0x90, 0x6c, 0x62, 0x7e, 0x42, 0x86, 0x40,
  0x87, 0x89, 0x61, 0x9f, 0x50, 0x54, 0xa5, 0x70, 0x6b, 0x61, 0x69, 0xa6,
  0x67, 0x5e, 0x77, 0x77, 0x70, 0x7f, 0x60, 0xa4, 0x83, 0x7e, 0x83, 0x5c,
  0x79, 0x79, 0x5b, 0x8b, 0x54, 0x7c, 0x94, 0xa1, 0x82, 0x76, 0x65, 0x88,
  0x9a, 0x8c, 0xa1, 0x7e, 0x71, 0x74, 0x6b, 0x70, 0x59, 0xaf, 0x7e, 0x5f,
  0x8f, 0x53, 0x80, 0x82, 0x78, 0x8d, 0xa2, 0x77, 0xaf, 0x6a, 0x5f, 0x96,
  0x7f, 0x91, 0xa9, 0x7e, 0xa2, 0x71, 0xb5, 0xa3, 0x46, 0x62, 0xb2, 0x47,
  0x7d, 0x71, 0x61, 0x9c, 0x5b, 0x4a, 0xad, 0x3d, 0x77, 0x6d, 0x7e, 0x8b,
  0x74, 0x79, 0xce, 0x4a, 0x78, 0x69, 0x5c, 0x85, 0x80, 0x6c, 0xae, 0x5e,
  0x5d, 0x77, 0x80, 0x92, 0x7c, 0x71, 0xaf, 0x68, 0x7f, 0x8a, 0x95, 0x99,
  0x66, 0x7c, 0x7e, 0x8e, 0x6e, 0x85, 0x6b, 0x6e, 0x80, 0x81, 0x6e, 0x67,
  0x9c, 0x8f, 0x76, 0xa3, 0x4d, 0x71, 0x87, 0x20, 0x34, 0x70, 0x59, 0x77,
  0x68, 0x3a, 0xa2, 0x47, 0x66, 0xb0, 0x4f, 0x5b, 0x84, 0x43, 0x8c, 0x13,
  0xa1, 0xa2, 0x3e, 0x7e, 0x70, 0x1f, 0xa3, 0x5d, 0x75, 0x86, 0x69, 0x8c,
  0x6c, 0x38, 0x92, 0x52, 0x68, 0x7f, 0x8d, 0x6e, 0x50, 0x71, 0x9e, 0x88,
  0x6e, 0x71, 0x5d, 0x61, 0x61, 0x78, 0x90, 0x7f, 0x96, 0x64, 0x6b, 0x77,
  0x82, 0x99, 0xab, 0x59, 0x7d, 0x73, 0x51, 0x7b, 0x38, 0x83, 0x91, 0x69,
  0xa3, 0x79, 0x73, 0x8f, 0x79, 0x71, 0x78, 0x6d, 0x67, 0x6a, 0xa1, 0xa6,
  0x86, 0x8b, 0xa8, 0x69, 0x7b, 0x7c, 0x7c, 0x96, 0x94, 0x9a, 0xae, 0x73,
  0x7c, 0x7b, 0x87, 0x7e, 0x87, 0x70, 0xa6, 0x91, 0x86, 0x72, 0x87, 0x98,
  0x85, 0x8c, 0xa7, 0x4f, 0x66, 0x76, 0x61, 0x86, 0x85, 0x61, 0xb8, 0x80,
  0x8c, 0x63, 0x5a, 0x8c, 0x69, 0x52, 0xa1, 0x52, 0x67, 0x63, 0x87, 0xab,
  0x3d, 0x63, 0xa8, 0x77, 0x99, 0x64, 0x64, 0x78, 0x67, 0x70, 0xa8, 0x48,
  0x98, 0x7f, 0x6d, 0xa8, 0x7d, 0x8a, 0x88, 0x98, 0x80, 0x64, 0x7e, 0x87,
  0x6c, 0x95, 0x90, 0x4c, 0x82, 0x88, 0x6c, 0x65, 0x7c, 0x65, 0x7f, 0x34,
  0x61, 0xa0, 0x3c, 0x7e, 0x6a, 0x43, 0x7e, 0x39, 0x68, 0xbc, 0x27, 0x55,
  0x51, 0x3c, 0xad, 0x2f, 0x64, 0xab, 0x42, 0x81, 0x70, 0x23, 0xa5, 0x38,
  0x67, 0x91, 0x6a, 0x80, 0x84, 0x52, 0x9f, 0x47, 0x82, 0x7d, 0x9c, 0x79,
  0x37, 0x52, 0xae, 0x84, 0x72, 0x80, 0x97, 0x94, 0x6c, 0x81, 0x91, 0x5d,
  0xa5, 0x6f, 0x75, 0x80, 0x62, 0x5e, 0x93, 0x5a, 0x4d, 0x65, 0x6f, 0x90,
  0x72, 0x74, 0x7d, 0x93, 0x78, 0x65, 0x88, 0x95, 0x7f, 0x80, 0x98, 0x9e,
  0x67, 0x69, 0x97, 0x84, 0x86, 0x63, 0xaf, 0x95, 0x5f, 0x66, 0x71, 0x6c,
  0x86, 0x68, 0x94, 0x6e, 0x81, 0x6c, 0x7a, 0x81, 0x73, 0x90, 0x88, 0x6e,
  0x69, 0x7f, 0xa2, 0x78, 0x6a, 0x7f, 0xa6, 0x62, 0x9d, 0x62, 0x88, 0x97,
  0x6c, 0x4e, 0xae, 0x2d, 0x81, 0x71, 0x7a, 0xa9, 0x75, 0x4f, 0x83, 0x33,
  0x5e, 0x7f, 0x62, 0x8f, 0x59, 0x82, 0xc4, 0x46, 0x60, 0x69, 0x79, 0x91,
  0x76, 0x8a, 0x93, 0x70, 0x4d, 0x7c, 0x92, 0x9a, 0x78, 0x6e, 0x8a, 0x83,
  0x9a, 0x64, 0x84, 0x7b, 0x63, 0x91, 0x95, 0x60, 0x95, 0xa1, 0x7f, 0x7c,
  0x97, 0x87, 0x85, 0x1b, 0x86, 0xa0, 0x5b, 0x4e, 0x43, 0x60, 0xa8, 0x27,
  0x86, 0xac, 0x30, 0x91, 0x5e, 0x42, 0x7a, 0x30, 0x7e, 0xcb, 0x69, 0x81,
  0x5c, 0x4f, 0x89, 0x43, 0x49, 0x96, 0x6a, 0x57, 0x60, 0x5d, 0xb8, 0x33,
  0x6d, 0x8d, 0x65, 0x91, 0x51, 0x50, 0x83, 0x5a, 0x59, 0x82, 0x76, 0x9d,
  0x52, 0x77, 0x96, 0x8d, 0x96, 0x6f, 0x6e, 0x76, 0x4b, 0x6c, 0x96, 0x5e,
  0x8f, 0x84, 0x5c, 0x84, 0x8d, 0x79, 0xb2, 0x67, 0x67, 0x73, 0x65, 0x5c,
  0x65, 0x7a, 0xaa, 0x82, 0x85, 0x81, 0x7c, 0xa9, 0x3f, 0x9c, 0x79, 0x92,
  0x7f, 0x69, 0x8d, 0xa6, 0xa7, 0x94, 0x80, 0x5c, 0x5a, 0x7e, 0x67, 0x69,
  0x97, 0x94, 0xad, 0x5b, 0x67, 0x80, 0x7d, 0x7c, 0x62, 0x7e, 0xbf, 0x43,
  0x97, 0x82, 0x55, 0x94, 0x64, 0x7d, 0xbf, 0x69, 0x8c, 0x7b, 0x81, 0x90,
  0x64, 0x71, 0xba, 0x53, 0x67, 0x68, 0x74, 0x6f, 0x3a, 0x4e, 0xbc, 0x34,
  0x94, 0x6c, 0x97, 0x85, 0x53, 0x75, 0xb5, 0x5a, 0x91, 0x6a, 0x80, 0x8a,
  0x75, 0x8a, 0x9e, 0xa7, 0x61, 0x57, 0x70, 0x87, 0x77, 0x81, 0x97, 0x3d,
  0xb2, 0x94, 0x80, 0x8e, 0x86, 0x74, 0x8d, 0x17, 0x63, 0x9f, 0x6c, 0x80,
  0x6f, 0x2d, 0x8b, 0x4a, 0x8f, 0xc5, 0x2a, 0x81, 0x70, 0x0d, 0x81, 0x26,
  0x96, 0xc1, 0x66, 0xa3, 0x78, 0x15, 0x95, 0x59, 0x5c, 0x92, 0x84, 0x91,
  0x8e, 0x26, 0xa9, 0x33, 0x49, 0x72, 0x74, 0x82, 0x7b, 0x60, 0xaa, 0x4c,
  0x8f, 0x70, 0x8c, 0x6d, 0x42, 0x4b, 0x88, 0x50, 0xa2, 0x82, 0x76, 0xa7,
  0x5e, 0x7c, 0x84, 0x91, 0x5f, 0x83, 0x42, 0x7b, 0x4f, 0x59, 0x7b, 0x69,
  0x83, 0x72, 0x6d, 0x7b, 0x67, 0x87, 0x94, 0x92, 0x85, 0x6d, 0x7c, 0x81,
  0x42, 0x7e, 0x96, 0x6d, 0x65, 0x68, 0x81, 0x9b, 0x91, 0x96, 0x7b, 0x6f,
  0x61, 0x6a, 0x8c, 0x90, 0xb0, 0x7d, 0x93, 0x81, 0x73, 0x77, 0x7a, 0x6d,
  0x6f, 0x7d, 0xbb, 0x93, 0x94, 0x66, 0x52, 0x75, 0x4e, 0x71, 0xb8, 0x4f,
  0x98, 0x72, 0x62, 0x79, 0x50, 0x66, 0xbd, 0x48, 0x5d, 0x60, 0x7e, 0x8f,
  0x55, 0x45, 0xcc, 0x72, 0x9e, 0x76, 0x82, 0x98, 0x6b, 0x72, 0xa6, 0x74,
  0xa5, 0x72, 0x70, 0x8a, 0x81, 0x83, 0x90, 0x77, 0xa7, 0x7d, 0x65, 0x72,
  0x87, 0x7a, 0x8f, 0x6b, 0x7d, 0xae, 0x85, 0x82, 0x78, 0x66, 0x7d, 0x31,
  0x50, 0xa9, 0x52, 0x51, 0x62, 0x45, 0x86, 0x6b, 0x50, 0xc8, 0x32, 0x77,
  0x77, 0x15, 0x91, 0x27, 0x74, 0xca, 0x5c, 0x85, 0x80, 0x4d, 0x9c, 0x59,
  0x62, 0xc0, 0x4c, 0x94, 0x5b, 0x39, 0x89, 0x3a, 0x62, 0x94, 0x6a, 0x61,
  0x62, 0x4d, 0xa5, 0x66, 0xa6, 0x76, 0x88, 0x5b, 0x36, 0x5c, 0x83, 0x4b,
  0x7a, 0x6f, 0x71, 0x81, 0x77, 0x87, 0x7c, 0x6e, 0x7d, 0x7f, 0x44, 0x71,
  0x46, 0xa0, 0xa5, 0x79, 0x85, 0x7d, 0x60, 0x81, 0x65, 0x85, 0x85, 0x8a,
  0xa6, 0x7b, 0x8a, 0x9c, 0x62, 0x9f, 0x92, 0x81, 0x7a, 0x75, 0x90, 0x64,
  0x6b, 0x86, 0x88, 0x68, 0x59, 0x6f, 0xa2, 0x85, 0x81, 0x78, 0xc3, 0x63,
  0x78, 0x79, 0x85, 0x8b, 0x94, 0x81, 0x91, 0x58, 0x99, 0x86, 0x7b, 0x79,
  0x49, 0x78, 0x9f, 0x74, 0x6f, 0x6e, 0x6a, 0xa5, 0x42, 0x60, 0xad, 0x47,
  0x6c, 0x78, 0x6c, 0xa6, 0x5f, 0x8b, 0xa8, 0x53, 0x6a, 0x61, 0x73, 0xa0,
  0x56, 0x7d, 0x96, 0x68, 0x67, 0x7c, 0x92, 0xa2, 0x5f, 0x8b, 0x8a, 0x68,
  0x7a, 0x56, 0x78, 0x7a, 0x74, 0x87, 0xab, 0x69, 0xb3, 0xa8, 0x71, 0x8a,
  0x80, 0x6d, 0x77, 0x34, 0x53, 0xa9, 0x55, 0x7b, 0x76, 0x22, 0x89, 0x57,
  0x65, 0xb1, 0x4b, 0x5d, 0x32, 0x3e, 0x8e, 0x14, 0x8f, 0xc1, 0x4d, 0x92,
  0x8f, 0x3b, 0x87, 0x75, 0x5d, 0xa7, 0x53, 0x80, 0x51, 0x3d, 0x84, 0x53,
  0x8d, 0x9c, 0x6f, 0x9a, 0x4e, 0x4a, 0xa0, 0x5d, 0x76, 0x7b, 0x50, 0x86,
  0x5d, 0x70, 0x8b, 0x6b, 0xa4, 0x77, 0x70, 0x8e, 0x54, 0x86, 0xa7, 0x47,
  0x7f, 0x74, 0x4f, 0x87, 0x46, 0x76, 0x8e, 0x97, 0x63, 0x84, 0x58, 0x7a,
  0x78, 0x84, 0x69, 0x7b, 0x80, 0x7a, 0x5e, 0x60, 0x60, 0x77, 0x72, 0x76,
  0x7c, 0x66, 0x6e, 0x92, 0x9a, 0x9d, 0x9f, 0x8f, 0x61, 0x64, 0x96, 0x88,
  0x95, 0x69, 0xa8, 0x77, 0x67, 0x87, 0x58, 0x96, 0x62, 0x85, 0x83, 0x7b,
  0x80, 0x78, 0x70, 0x8d, 0x52, 0x7c, 0xbd, 0x5f, 0x81, 0x6b, 0x6d, 0x84,
  0x52, 0x99, 0x9b, 0x5d, 0x6c, 0x80, 0x57, 0x5b, 0x75, 0x4e, 0xa1, 0x50,
  0x67, 0x68, 0x76, 0xad, 0x5f, 0x5c, 0x9c, 0x6f, 0x62, 0x7a, 0x87, 0xa4,
  0x73, 0x7d, 0xc4, 0x5b, 0x6f, 0x64, 0x8a, 0x64, 0x57, 0x61, 0x80, 0x69,
  0xa0, 0xb1, 0x7e, 0x7e, 0x5e, 0x3f, 0x9c, 0x32, 0x64, 0xa2, 0x51, 0x8b,
  0x4f, 0x56, 0x94, 0x3d, 0x9e, 0xc8, 0x28, 0x83, 0x61, 0x22, 0x76, 0x3b,
  0x54, 0xea, 0x5d, 0x8c, 0x8c, 0x42, 0x7a, 0x50, 0x8b, 0xb3, 0x61, 0x73,
  0x65, 0x4e, 0xae, 0x73, 0x87, 0x8f, 0x82, 0x7a, 0x4e, 0x5f, 0x96, 0x78,
  0x78, 0x72, 0x73, 0x90, 0x7b, 0x8f, 0x75, 0x7d, 0x5b, 0x83, 0x72, 0x62,
  0x4a, 0x74, 0xa6, 0x71, 0x73, 0x7a, 0x3c, 0xa2, 0x40, 0x84, 0x8e, 0x6c,
  0x7a, 0x8f, 0x5c, 0x80, 0x46, 0x78, 0xa5, 0x7e, 0x77, 0x70, 0x58, 0x80,
  0x51, 0x90, 0x99, 0x81, 0x81, 0x6d, 0x82, 0x86, 0x73, 0x7d, 0x89, 0x87,
  0x6b, 0x80, 0x74, 0x6a, 0xa4, 0x65, 0x86, 0x68, 0x85, 0x7a, 0x78, 0x7a,
  0x5e, 0x44, 0xa2, 0x63, 0x73, 0x69, 0x8f, 0x98, 0x80, 0x7a, 0xaf, 0x55,
  0x76, 0x64, 0x44, 0x70, 0x49, 0x53, 0xbb, 0x5d, 0x9b, 0x65, 0x54, 0xbc,
  0x7c, 0x5a, 0xba, 0x4f, 0x7d, 0x85, 0x8a, 0xa1, 0x4f, 0x65, 0xad, 0x72,
  0x90, 0x7b, 0x87, 0x91, 0x6c, 0x8c, 0xb1, 0x84, 0x64, 0x52, 0x7d, 0x65,
  0x79, 0x84, 0xb2, 0x63, 0x8e, 0xca, 0x82, 0x9c, 0x97, 0x8a, 0x87, 0x2a,
  0x66, 0xb3, 0x71, 0x83, 0x5c, 0x40, 0xb6, 0x50, 0x75, 0xe8, 0x3c, 0x80,
  0x4f, 0x30, 0x92, 0x11, 0x72, 0xcd, 0x56, 0x7e, 0x4f, 0x56, 0x85, 0x3a,
  0x8b, 0xb2, 0x83, 0x77, 0x48, 0x4a, 0x80, 0x35, 0x94, 0x87, 0x78, 0xa8,
  0x53, 0x7c, 0x97, 0x5b, 0x77, 0x7e, 0x65, 0x57, 0x6f, 0x8c, 0x84, 0x86,
  0x82, 0x8f, 0x51, 0x81, 0x4c, 0x9d, 0x79, 0x40, 0x64, 0x7e, 0x5a, 0x62,
  0x7a, 0x67, 0x8e, 0x53, 0x80, 0x8e, 0x47, 0x83, 0x89, 0xae, 0x8b, 0x9d,
  0x79, 0x65, 0x6a, 0x56, 0x61, 0x9b, 0xb6, 0x71, 0x72, 0x5a, 0x78, 0x52,
  0x75, 0xb3, 0x9b, 0x75, 0x60, 0x91, 0x77, 0x82, 0x4f, 0x5e, 0x79, 0x90,
  0x91, 0x81, 0x50, 0x8f, 0x5a, 0x7e, 0xba, 0x60, 0x85, 0x6d, 0x80, 0x8c,
  0x4f, 0x6d, 0x90, 0x55, 0x4c, 0x73, 0x50, 0x7d, 0x36, 0x87, 0xa4, 0x68,
  0x96, 0x6e, 0x6e, 0x82, 0x3e, 0x85, 0xa6, 0x4f, 0x7c, 0x61, 0x74, 0x99,
  0x48, 0x7d, 0xc0, 0x3e, 0x82, 0x63, 0x52, 0x9a, 0x6a, 0x83, 0x95, 0xa6,
  0x84, 0x5d, 0x7a, 0x67, 0xaa, 0x7d, 0x7e, 0x57, 0xb1, 0xcf, 0x65, 0x98,
  0x87, 0x71, 0x6e, 0x4b, 0x86, 0xbf, 0x58, 0x85, 0x4b, 0x20, 0x7c, 0x3d,
  0x46, 0xc3, 0x4b, 0x81, 0x39, 0x1e, 0x84, 0x56, 0x88, 0xd5, 0x5f, 0x7f,
  0x6c, 0x70, 0x8a, 0x6d, 0x61, 0xc0, 0x76, 0x67, 0x28, 0x3d, 0x8f, 0x5d,
  0x8e, 0xb0, 0x62, 0x84, 0x4e, 0x40, 0x7d, 0x6e, 0x6a, 0x76, 0x73, 0x83,
  0x5d, 0x69, 0x98, 0x72, 0x7e, 0x89, 0x7d, 0x6e, 0x15, 0x7f, 0x7d, 0x61,
  0x60, 0x83, 0x2e, 0x7f, 0x4c, 0x84, 0x9b, 0x63, 0x70, 0x83, 0x66, 0x8b,
  0x7d, 0x7a, 0x99, 0x78, 0x4b, 0x86, 0x8d, 0x66, 0x66, 0x82, 0x89, 0x74,
  0x6c, 0x79, 0x8a, 0x66, 0xa9, 0x7d, 0x88, 0x60, 0x62, 0x81, 0x95, 0x73,
  0x72, 0x6a, 0xbd, 0x6a, 0x96, 0x84, 0x5f, 0x75, 0x78, 0x4b, 0x98, 0x55,
  0x64, 0x86, 0x66, 0xa3, 0x56, 0x5b, 0xb9, 0x8a, 0x62, 0x85, 0x7f, 0x97,
  0x4e, 0x6d, 0x9a, 0x62, 0xac, 0x6d, 0x60, 0x70, 0x69, 0x8f, 0xc1, 0x82,
  0x82, 0x79, 0x9e, 0x8b, 0x4d, 0x48, 0xa9, 0x41, 0x7f, 0x66, 0x79, 0x8b,
  0x76, 0x7e, 0x8a, 0x92, 0x99, 0x74, 0x82, 0x77, 0x4c, 0x56, 0x87, 0x5e,
  0x90, 0xd9, 0x80, 0xb1, 0xa1, 0x58, 0x82, 0x35, 0x4f, 0xba, 0x4f, 0x49,
  0x73, 0x11, 0x84, 0x3c, 0x85, 0xfe, 0x49, 0x71, 0x26, 0x25, 0x86, 0x58,
  0x87, 0xf6, 0x2d, 0x6e, 0x41, 0x45, 0xa1, 0x6d, 0x5a, 0xe4, 0x5a, 0x6f,
  0x56, 0x47, 0x9b, 0x58, 0x76, 0xaf, 0x57, 0x62, 0x4b, 0x8a, 0x74, 0x4a,
  0x5c, 0x86, 0x5f, 0x6f, 0x43, 0x73, 0x86, 0x6e, 0x7c, 0xa3, 0x4f, 0x60,
  0x4f, 0x9e, 0xad, 0x6d, 0x8d, 0x8a, 0x49, 0x69, 0x39, 0x7b, 0x86, 0x68,
  0x7e, 0x91, 0x4c, 0xa9, 0x7b, 0x9d, 0x6a, 0x89, 0x7a, 0x7e, 0x63, 0x97,
  0x75, 0x7e, 0x77, 0x52, 0x70, 0x80, 0x4e, 0x7c, 0x80, 0x98, 0xa3, 0x7e,
  0x71, 0x9e, 0x64, 0x9e, 0x7b, 0x5d, 0x7c, 0x5f, 0xa3, 0x83, 0x7c, 0x7b,
  0x84, 0x62, 0x94, 0x75, 0xac, 0x8b, 0x47, 0x7c, 0x31, 0x5b, 0xb8, 0x6e,
  0x9f, 0x8d, 0x5a, 0x88, 0x40, 0x85, 0xb3, 0x65, 0x7c, 0x5f, 0x53, 0x84,
  0x4d, 0x7a, 0xc4, 0x7e, 0x70, 0x7c, 0x74, 0x70, 0x3b, 0x68, 0x8b, 0x38,
  0x62, 0x75, 0x5c, 0x9c, 0x70, 0x8b, 0x9d, 0x64, 0x84, 0x68, 0x6c, 0x74,
  0x8d, 0x60, 0x8b, 0x5b, 0x94, 0xd9, 0x7b, 0x88, 0x6e, 0x4f, 0x77, 0x33,
  0x3f, 0xd1, 0x73, 0x6c, 0x54, 0x31, 0x73, 0x52, 0xa0, 0xff, 0x3e, 0x58,
  0x2e, 0x4b, 0x67, 0x35, 0x70, 0xff, 0x46, 0x78, 0x3e, 0x3b, 0x8e, 0x6f,
  0x80, 0xd2, 0x68, 0x89, 0x55, 0x56, 0x8c, 0x45, 0x4c, 0xbf, 0x71, 0xa7,
  0x53, 0x6c, 0x8f, 0x63, 0x7f, 0xa2, 0x59, 0x6d, 0x31, 0x8f, 0x6e, 0x5f,
  0x91, 0x88, 0x54, 0x5a, 0x3e, 0x7c, 0x93, 0x46, 0x8a, 0x79, 0x3f, 0x7f,
  0x50, 0x7f, 0x6e, 0x96, 0x6f, 0x9e, 0x5a, 0x82, 0x82, 0x8d, 0x8c, 0x7e,
  0x5a, 0x67, 0x62, 0x8e, 0x7c, 0x6a, 0x8a, 0x60, 0x5f, 0x8b, 0x50, 0x78,
  0x87, 0x95, 0x71, 0x78, 0x93, 0x84, 0x5c, 0x7c, 0x77, 0x5d, 0x7a, 0x79,
  0x5a, 0x7f, 0x77, 0xa1, 0x64, 0x7b, 0x86, 0x69, 0xa3, 0x9d, 0x69, 0x5e,
  0x61, 0x5d, 0x8d, 0x5b, 0x8f, 0x7e, 0x46, 0x8d, 0x53, 0x3e, 0x9c, 0x49,
  0x70, 0x72, 0x3c, 0x99, 0x6a, 0x82, 0x89, 0x54, 0x82, 0x6f, 0x63, 0x94,
  0x61, 0x70, 0xa4, 0x79, 0x6b, 0x8e, 0x6d, 0x8e, 0x78, 0x80, 0x9e, 0x86,
  0x6d, 0x86, 0x97, 0x96, 0x68, 0x6f, 0x64, 0x3e, 0xc2, 0xd5, 0x7e, 0xa7,
  0x9a, 0x6c, 0x8e, 0x21, 0xb6, 0xc6, 0xaf, 0x6c, 0x2c, 0x44, 0x6a, 0x63,
  0x8c, 0xda, 0x91, 0x7e, 0x01, 0x4b, 0x9f, 0x60, 0xba, 0xf1, 0xcb, 0x8d,
  0x3f, 0x4d, 0x76, 0x8d, 0xa4, 0xae, 0xb8, 0xa6, 0x40, 0x3a, 0x9f, 0x5d,
  0x6d, 0xb8, 0xaf, 0xa8, 0x30, 0x5a, 0x5e, 0x74, 0x85, 0x98, 0x8f, 0x7c,
  0x34, 0x53, 0x5e, 0x63, 0x79, 0x79, 0x5c, 0x8a, 0x27, 0x78, 0x57, 0x70,
  0xa8, 0x9d, 0x7a, 0x9e, 0x49, 0x78, 0x7b, 0x5d, 0x8a, 0x94, 0x81, 0x9d,
  0x6c, 0x8b, 0x66, 0x82, 0x66, 0x89, 0x85, 0x95, 0x39, 0x68, 0x7a, 0x71,
  0x90, 0x7b, 0x80, 0x89, 0x9b, 0x87, 0x9c, 0x5d, 0x88, 0x77, 0x8e, 0x91,
  0x4e, 0x7b, 0x7f, 0x7c, 0x9b, 0x80, 0x76, 0x8b, 0x47, 0x5a, 0x8c, 0x75,
  0xa8, 0x98, 0xa0, 0x92, 0x37, 0x5b, 0x97, 0x65, 0x60, 0x79, 0x75, 0x8e,
  0x4a, 0x60, 0x81, 0x68, 0x6b, 0x7e, 0x66, 0xa5, 0x84, 0x77, 0x64, 0x67,
  0x69, 0x80, 0x81, 0x73, 0x81, 0x8d, 0x9d, 0x59, 0x89, 0x8f, 0x7f, 0x8b,
  0x7d, 0x85, 0xb2, 0x6e, 0x79, 0x65, 0x69, 0x85, 0x8f, 0x6a, 0x5b, 0x37,
  0xd2, 0xd1, 0xa6, 0x8e, 0x89, 0x77, 0x73, 0x2c, 0x79, 0xbd, 0xd0, 0x6c,
  0x29, 0x8a, 0x90, 0x4d, 0x8a, 0xac, 0xcb, 0x71, 0x0b, 0x77, 0x85, 0x4d,
  0x97, 0xbe, 0xbc, 0x94, 0x41, 0x6a, 0x78, 0x63, 0xb4, 0xab, 0xd2, 0x89,
  0x3d, 0x6f, 0x66, 0x7e, 0x80, 0x8b, 0xbf, 0x8f, 0x6e, 0x87, 0x65, 0x55,
  0x66, 0x56, 0xc5, 0x96, 0x46, 0x65, 0x75, 0x8a, 0x87, 0x6c, 0x99, 0x69,
  0x49, 0x7e, 0x58, 0x77, 0x84, 0x96, 0x9b, 0x83, 0x68, 0x91, 0x59, 0x72,
  0x7b, 0x94, 0x98, 0x97, 0x5e, 0x84, 0x76, 0x6c, 0x75, 0x7d, 0x8f, 0x99,
  0x56, 0x7c, 0x5c, 0x75, 0x7a, 0x78, 0x99, 0x6a, 0x69, 0xa1, 0x6b, 0x66,
  0x86, 0x9c, 0x86, 0x87, 0x37, 0x8f, 0x76, 0x46, 0x82, 0x77, 0x94, 0x52,
  0x5f, 0x8f, 0x83, 0x93, 0x9d, 0x84, 0x9f, 0x8a, 0x34, 0x4c, 0x6a, 0x60,
  0x7f, 0x6d, 0x76, 0xae, 0x5f, 0x70, 0x65, 0x52, 0x62, 0x6d, 0x7a, 0x9d,
  0x77, 0x5c, 0xa1, 0x88, 0x83, 0x79, 0x89, 0x71, 0x81, 0x96, 0x6f, 0x7b,
  0x9a, 0x5e, 0x9b, 0xbe, 0x83, 0x6f, 0x61, 0x6d, 0x86, 0x60, 0x8e, 0x80,
  0x66, 0x9a, 0x82, 0x82, 0x6b, 0x72, 0x8f, 0x62, 0x77, 0x5b, 0x71, 0x74,
  0x7e, 0x8a, 0x5b, 0x57, 0x89, 0x72, 0x8e, 0x7d, 0x6f, 0x77, 0x98, 0x8a,
  0x94, 0x60, 0x8c, 0x73, 0x75, 0x72, 0x98, 0x6c, 0xb0, 0x86, 0x90, 0x61,
  0x9d, 0x90, 0xa0, 0x84, 0x61, 0x86, 0x8f, 0x75, 0x8f, 0x8f, 0x90, 0x72,
  0x7b, 0x70, 0x83, 0x8f, 0xa3, 0x9c, 0x86, 0x6f, 0x82, 0x6c, 0x80, 0x7f,
  0x60, 0x92, 0x83, 0x65, 0x7c, 0x72, 0x83, 0x71, 0x7c, 0x77, 0x75, 0x96,
  0x65, 0x81, 0xa5, 0x8f, 0x91, 0x7f, 0x67, 0x5f, 0x75, 0x7a, 0x93, 0x8b,
  0x71, 0x79, 0x7d, 0x96, 0x75, 0x7f, 0x7d, 0x95, 0x97, 0x9a, 0x8b, 0x89,
  0x5d, 0x76, 0x85, 0x80, 0x73, 0x74, 0x8c, 0x67, 0x62, 0x64, 0x85, 0x90,
  0x9c, 0x80, 0x99, 0x87, 0x71, 0x73, 0x99, 0x62, 0x87, 0x72, 0x86, 0x61,
  0x58, 0x62, 0x8f, 0x89, 0x5d, 0x82, 0x84, 0x52, 0x73, 0x74, 0x7d, 0x9b,
  0x79, 0x8c, 0x90, 0x6d, 0x91, 0x70, 0x8b, 0x57, 0x5a, 0x87, 0x65, 0x7b,
  0x5e, 0x7c, 0x95, 0x6a, 0x85, 0x97, 0x6c, 0x81, 0x86, 0x7c, 0x8e, 0xa0,
  0x87, 0x53, 0x59, 0x76, 0x8e, 0x90, 0x76, 0x89, 0x95, 0x77, 0x64, 0x61,
  0x98, 0x64, 0x7f, 0x7f, 0x6e, 0x78, 0x77, 0x87, 0x50, 0x7f, 0x73, 0x4a,
  0x8f, 0xa7, 0x95, 0x83, 0x85, 0x80, 0x85, 0x52, 0x7f, 0x81, 0x69, 0x8c,
  0x68, 0x8f, 0x80, 0x5c, 0x59, 0x7d, 0x95, 0x77, 0x85, 0x8e, 0x8a, 0x60,
  0x6d, 0x92, 0x82, 0x7f, 0x76, 0x96, 0x91, 0x7c, 0x7a, 0x73, 0x69, 0x82,
  0x6f, 0x87, 0x89, 0x59, 0x9b, 0x85, 0x56, 0x76, 0xa1, 0x83, 0x80, 0x80,
  0x84, 0x81, 0x9c, 0x5d, 0x53, 0xa1, 0x88, 0x5b, 0x9e, 0x7d, 0x8a, 0x83,
  0x89, 0x8c, 0x80, 0x9a, 0x63, 0x71, 0x99, 0x6a, 0x68, 0x8b, 0x72, 0x74,
  0x7b, 0x6e, 0xae, 0x74, 0x72, 0x72, 0x9e, 0x63, 0x9e, 0x68, 0x8a, 0x7c,
  0x8b, 0x82, 0x76, 0x51, 0x73, 0x5b, 0x90, 0x81, 0x74, 0x76, 0x94, 0x6a,
  0x6d, 0x8d, 0x8b, 0x84, 0x4a, 0x73, 0x7f, 0x7b, 0x90, 0x76, 0xa6, 0x9c,
  0x93, 0x7c, 0x9a, 0x58, 0x73, 0x7c, 0x7a, 0x90, 0xa9, 0x6f, 0x8a, 0x71,
  0x6e, 0x78, 0x8a, 0x91, 0x75, 0x76, 0x87, 0x67, 0x76, 0x87, 0x7d, 0x88,
  0x85, 0x76, 0x67, 0x79, 0x99, 0x79, 0x6b, 0x77, 0x94, 0x76, 0x7d, 0x80,
  0x3b, 0x6a, 0x87, 0x88, 0x79, 0x65, 0x74, 0x8c, 0x6d, 0x8f, 0x58, 0x60,
  0x62, 0x85, 0x84, 0x4a, 0x63, 0x65, 0x60, 0x7a, 0x6f, 0x6c, 0x76, 0x53,
  0x97, 0xae, 0x66, 0x71, 0x5c, 0x7f, 0x73, 0x64, 0x67, 0x9d, 0x80, 0x7c,
  0x63, 0x7a, 0x67, 0x73, 0x7e, 0xa3, 0x8d, 0x87, 0x5a, 0x99, 0x60, 0x84,
  0xaa, 0x83, 0x90, 0x9d, 0x65, 0x8c, 0x7e, 0x70, 0x7e, 0x62, 0x51, 0x66,
  0x70, 0x97, 0x61, 0x7e, 0x8c, 0x8b, 0x8c, 0x6e, 0x67, 0x95, 0x84, 0x69,
  0x74, 0x7b, 0x8f, 0x5e, 0x62, 0x9b, 0x8b, 0x7a, 0x72, 0x5d, 0x92, 0x6b,
  0x6c, 0x88, 0x8a, 0x79, 0x77, 0x7a, 0x5d, 0x83, 0x65, 0x68, 0x7a, 0x86,
  0x5d, 0x8f, 0x9f, 0x7a, 0x70, 0x6c, 0x75, 0x5d, 0x76, 0x8b, 0x7f, 0x80,
  0x7f, 0x6d, 0x61, 0x74, 0x86, 0x5f, 0x56, 0x76, 0x92, 0x72, 0x51, 0x64,
  0x8a, 0x6c, 0x89, 0x86, 0xa4, 0x7f, 0x89, 0x80, 0x81, 0x81, 0xa6, 0x61,
  0x8a, 0x8c, 0x63, 0x83, 0x98, 0x72, 0x96, 0x92, 0x72, 0x84, 0x77, 0x80,
  0xa6, 0x6d, 0x87, 0x68, 0x88, 0x83, 0x65, 0x94, 0x7b, 0x81, 0x66, 0x8a,
  0x97, 0x86, 0x64, 0x78, 0x63, 0x7e, 0x68, 0x96, 0x74, 0x77, 0x72, 0x8f,
  0x75, 0x86, 0x4b, 0x71, 0xa5, 0x43, 0x73, 0x4d, 0x6f, 0x95, 0x69, 0x68,
  0x96, 0x6e, 0x78, 0x3c, 0x74, 0x6e, 0xba, 0x83, 0x9d, 0x66, 0x80, 0x61,
  0x77, 0x8f, 0xbb, 0x66, 0x98, 0x66, 0x7c, 0x7e, 0x80, 0x5e, 0x85, 0x67,
  0x83, 0x9f, 0x98, 0x5f, 0x76, 0x73, 0x60, 0x7b, 0x72, 0x87, 0x62, 0xa5,
  0x6e, 0x98, 0x81, 0x72, 0x7e, 0x9a, 0x5f, 0x8f, 0x72, 0x86, 0x91, 0x9a,
  0x77, 0xa6, 0x73, 0x8a, 0x76, 0x79, 0x51, 0x72, 0x67, 0xa3, 0x76, 0x94,
  0x70, 0x78, 0x78, 0x93, 0x6b, 0x85, 0x83, 0x82, 0x9b, 0x58, 0x79, 0x7b,
  0x69, 0x5e, 0x83, 0x89, 0x90, 0x5d, 0x7a, 0x70, 0x78, 0x70, 0x68, 0x6b,
  0x56, 0x78, 0x63, 0x8a, 0xa0, 0x5f, 0x56, 0x7b, 0x6d, 0x6e, 0xb0, 0x80,
  0x9a, 0x6b, 0x6f, 0x71, 0x66, 0x6a, 0xbc, 0x88, 0x84, 0x6e, 0x77, 0x8f,
  0x7a, 0x77, 0x97, 0x57, 0xa7, 0x71, 0x8a, 0x93, 0x73, 0x69, 0x95, 0x97,
  0x7b, 0x6d, 0x52, 0x81, 0x89, 0x69, 0x95, 0x6f, 0x77, 0x84, 0x88, 0x83,
  0x77, 0x7b, 0x7f, 0x71, 0x54, 0x8d, 0x7e, 0x77, 0x93, 0x5f, 0x93, 0x67,
  0x61, 0x67, 0x71, 0x85, 0x9b, 0x6f, 0x70, 0x79, 0xa1, 0x57, 0x99, 0x2d,
  0x5d, 0x78, 0x9b, 0xa0, 0xaf, 0x5e, 0x90, 0x61, 0x71, 0xa1, 0x8c, 0x66,
  0x8f, 0x64, 0xa7, 0x61, 0x76, 0x7f, 0x80, 0x8e, 0x98, 0x6c, 0x89, 0x7b,
  0x6e, 0x64, 0x96, 0x75, 0x90, 0x8c, 0x60, 0x75, 0x85, 0x60, 0x7b, 0x7c,
  0x95, 0x8c, 0x67, 0x9b, 0x80, 0x7b, 0x86, 0x71, 0x7d, 0xa6, 0x83, 0x96,
  0x89, 0x8d, 0x6e, 0x73, 0x72, 0x95, 0x72, 0x80, 0x7a, 0x79, 0x60, 0x6f,
  0x78, 0xaa, 0x6c, 0xaf, 0x8f, 0x63, 0x53, 0x93, 0x9b, 0xa9, 0x7f, 0x91,
  0x7a, 0x76, 0x94, 0x8c, 0x78, 0x79, 0x6f, 0x75, 0x92, 0x61, 0x7f, 0x58,
  0xa1, 0x66, 0x7b, 0x7e, 0x67, 0x6d, 0xa7, 0x5d, 0x8f, 0x73, 0x63, 0x7b,
  0x6c, 0x7c, 0xac, 0x89, 0x9b, 0x64, 0x7f, 0x6c, 0x76, 0x75, 0x93, 0x94,
  0x95, 0x7e, 0x85, 0x8a, 0x5f, 0x89, 0xb0, 0x8a, 0x98, 0x83, 0x6b, 0x80,
  0x7d, 0x6c, 0xb6, 0x83, 0x72, 0x62, 0x59, 0x92, 0x5c, 0x74, 0x88, 0x63,
  0x71, 0x93, 0x88, 0x7e, 0x75, 0x7e, 0x76, 0x7a, 0x86, 0x8d, 0x79, 0x74,
  0x66, 0x7e, 0x9f, 0xaa, 0x72, 0x7c, 0x63, 0x71, 0x99, 0x7a, 0x7d, 0x60,
  0xb4, 0x53, 0x9e, 0x2b, 0x8a, 0x6c, 0x7e, 0x5c, 0x94, 0x53, 0xb4, 0x59,
  0x65, 0x79, 0xa6, 0x71, 0x9e, 0x5c, 0x80, 0x68, 0x7c, 0x74, 0x9d, 0x7c,
  0x9f, 0x57, 0x6b, 0x55, 0x57, 0x59, 0x8e, 0x6a, 0x83, 0x70, 0x8d, 0x80,
  0xa9, 0x6c, 0x39, 0x89, 0x8f, 0xcc, 0x71, 0xbc, 0x60, 0x63, 0x66, 0x83,
  0x5f, 0xcd, 0x72, 0x9a, 0x50, 0x90, 0x75, 0x70, 0x84, 0xc9, 0x7a, 0xae,
  0x9a, 0x61, 0x75, 0xa2, 0x72, 0xb1, 0x83, 0x93, 0x55, 0x83, 0x74, 0x72,
  0x90, 0x81, 0x75, 0x95, 0x86, 0x6b, 0x9b, 0x98, 0x74, 0x52, 0x7b, 0x75,
  0x8d, 0x76, 0x6d, 0x71, 0x8b, 0x66, 0x74, 0x3b, 0x64, 0x5c, 0x85, 0x90,
  0x9b, 0x68, 0x78, 0x55, 0x83, 0x56, 0x97, 0x6b, 0xa1, 0x76, 0x74, 0x76,
  0x5c, 0x4a, 0xda, 0x7a, 0xc1, 0x62, 0x74, 0x60, 0x62, 0x6d, 0xb3, 0x6e,
  0x90, 0x7c, 0x63, 0x83, 0x75, 0x75, 0xa2, 0x87, 0x63, 0x7a, 0x5b, 0x83,
  0x60, 0x67, 0x83, 0x83, 0x84, 0x83, 0x68, 0x7f, 0x8a, 0x83, 0x95, 0x7d,
  0x75, 0x62, 0x4f, 0x90, 0x54, 0x6e, 0x75, 0x69, 0x97, 0x85, 0x7c, 0x8b,
  0x5d, 0x76, 0x88, 0x62, 0xa0, 0x5e, 0x85, 0x18, 0x89, 0x69, 0xa5, 0x98,
  0xb9, 0x59, 0xa5, 0x57, 0x75, 0x80, 0xb6, 0x5e, 0xa2, 0x68, 0x8c, 0x6d,
  0x96, 0x66, 0xbd, 0x66, 0x95, 0x64, 0x7e, 0x58, 0x58, 0x71, 0x5c, 0x52,
  0x78, 0x7a, 0x6d, 0x7d, 0x73, 0x53, 0x76, 0x66, 0x9b, 0xb2, 0x63, 0xb8,
  0x61, 0x64, 0x6a, 0x78, 0x6e, 0xc2, 0x60, 0xc1, 0x61, 0x6a, 0x73, 0x6f,
  0x7a, 0xc1, 0x60, 0xbc, 0x80, 0x62, 0x6a, 0x8f, 0x8a, 0xc2, 0x84, 0xa6,
  0x68, 0x7e, 0x62, 0x86, 0x90, 0x8a, 0x71, 0x83, 0xa1, 0x9c, 0x69, 0x8c,
  0x99, 0x50, 0x9f, 0x90, 0x7a, 0x7c, 0x5f, 0x73, 0x8e, 0x50, 0x74, 0x47,
  0x7d, 0x71, 0x8e, 0x8f, 0xad, 0x73, 0x7b, 0x7d, 0x94, 0x57, 0xbd, 0x7f,
  0xa0, 0x6e, 0x5e, 0x6a, 0x52, 0x55, 0xa4, 0x5f, 0x96, 0x7b, 0x68, 0x6b,
  0x64, 0x76, 0x9e, 0x84, 0xbc, 0x8d, 0x64, 0x62, 0x62, 0x5e, 0x9f, 0x89,
  0x76, 0x79, 0x64, 0x85, 0x79, 0x6f, 0x77, 0x93, 0x72, 0x6f, 0x81, 0x8a,
  0x81, 0x6d, 0x83, 0x74, 0x9a, 0x51, 0x55, 0x96, 0x73, 0x7c, 0x59, 0x86,
  0x90, 0x5a, 0x8b, 0x89, 0x9d, 0x78, 0x75, 0x58, 0xc8, 0x5b, 0xa0, 0x1f,
  0x6a, 0x79, 0x8f, 0x88, 0xc9, 0x56, 0xa1, 0x81, 0x80, 0x8c, 0x95, 0x80,
  0x7d, 0x53, 0x71, 0x72, 0x8d, 0x65, 0x98, 0x5f, 0x7c, 0x5a, 0x96, 0x50,
  0x5c, 0x76, 0x62, 0x70, 0x85, 0x83, 0x6c, 0x79, 0x84, 0x6d, 0x56, 0x66,
  0x82, 0x9a, 0x6c, 0xc6, 0x6b, 0x82, 0x71, 0x7f, 0x6f, 0xb8, 0x64, 0xb9,
  0x6c, 0x73, 0x78, 0x67, 0x79, 0xbd, 0x65, 0xc2, 0x79, 0x6b, 0x56, 0x8f,
  0x99, 0xc5, 0x60, 0x9f, 0x98, 0x87, 0x4a, 0xa6, 0x9b, 0x81, 0x6c, 0x9d,
  0x9c, 0x7b, 0x7d, 0x9f, 0x69, 0x60, 0x82, 0x7c, 0x86, 0x88, 0x7f, 0x69,
  0x85, 0x65, 0x84, 0x69, 0x7c, 0x6c, 0x94, 0x78, 0xd8, 0x78, 0x6e, 0x7d,
  0x80, 0x65, 0xa8, 0x98, 0xc0, 0x74, 0x71, 0x73, 0xa5, 0x8d, 0x85, 0x66,
  0x97, 0x7f, 0x76, 0x7a, 0x8c, 0x8b, 0xa8, 0x9b, 0xb5, 0x7b, 0x6a, 0x64,
  0x72, 0x7f, 0x85, 0x82, 0x70, 0x75, 0x77, 0x8a, 0x83, 0x74, 0x66, 0x67,
  0x82, 0x5e, 0x69, 0x91, 0x6c, 0x8b, 0x7a, 0x81, 0x82, 0x72, 0x53, 0x8e,
  0x85, 0x5d, 0x71, 0x77, 0x94, 0x5c, 0x81, 0x91, 0x98, 0x88, 0xad, 0x98,
  0xec, 0x36, 0xb1, 0x43, 0x6f, 0x6c, 0x8f, 0x94, 0xe2, 0x52, 0x97, 0x7b,
  0x5d, 0x75, 0xa6, 0x7d, 0xa2, 0x60, 0x88, 0x7b, 0x80, 0x80, 0xb3, 0x64,
  0x6c, 0x55, 0x84, 0x61, 0x3e, 0x81, 0x5d, 0x4d, 0x7c, 0x7d, 0x64, 0x92,
  0x92, 0x76, 0x54, 0x52, 0xa4, 0x98, 0x71, 0xbb, 0x50, 0x76, 0x8c, 0x72,
  0x93, 0xb7, 0x78, 0xd3, 0x62, 0x88, 0x65, 0x85, 0x8d, 0xb6, 0x7b, 0xb4,
  0x68, 0x6f, 0x5b, 0x93, 0x76, 0xbe, 0x64, 0x9d, 0x6d, 0x7b, 0x40, 0xa6,
  0x9f, 0x93, 0x72, 0x9b, 0x92, 0x71, 0x8a, 0x73, 0x5e, 0x6c, 0x9b, 0x8a,
  0x49, 0x69, 0x6f, 0xa5, 0xb2, 0x6d, 0x6c, 0x2c, 0x79, 0x69, 0x86, 0x92,
  0xb6, 0x62, 0x8b, 0x52, 0x94, 0x69, 0xad, 0x9d, 0xac, 0x5a, 0x7b, 0x62,
  0x69, 0x8e, 0x92, 0x69, 0xab, 0x83, 0x89, 0x6c, 0x7d, 0x82, 0xa4, 0x5f,
  0xb5, 0x94, 0x70, 0x6e, 0x4d, 0x98, 0x7c, 0x87, 0x7f, 0x6a, 0x73, 0x73,
  0x84, 0x77, 0x8f, 0x7e, 0x83, 0x7d, 0x76, 0x70, 0x79, 0x93, 0x8b, 0x7a,
  0x83, 0x56, 0x67, 0x8d, 0x77, 0x6e, 0x61, 0x5b, 0x9b, 0x5a, 0x69, 0x77,
  0x7e, 0x7b, 0x93, 0x5b, 0xce, 0x51, 0xa2, 0x3c, 0x5f, 0x68, 0xad, 0x91,
  0xb9, 0x55, 0xa1, 0x79, 0x9e, 0x81, 0xab, 0x78, 0x8e, 0x6e, 0x9f, 0x80,
  0x78, 0x8c, 0xa8, 0x62, 0x8e, 0x6b, 0x76, 0x72, 0x57, 0x69, 0x4e, 0x72,
  0x7b, 0x82, 0x54, 0x85, 0x8f, 0x77, 0x6b, 0x67, 0xb8, 0xaa, 0x6b, 0xc3,
  0x6c, 0x57, 0x73, 0x9b, 0x77, 0xcb, 0x96, 0xf0, 0x57, 0x76, 0x7f, 0x72,
  0x77, 0xb8, 0x5d, 0x85, 0x92, 0x83, 0x60, 0x94, 0x89, 0xc0, 0x5b, 0x97,
  0x93, 0x81, 0x67, 0x92, 0xa0, 0x89, 0x5d, 0x95, 0x85, 0x76, 0x76, 0x85,
  0x78, 0x65, 0x69, 0x98, 0x61, 0x88, 0x74, 0x6a, 0x95, 0x48, 0x89, 0x45,
  0x8d, 0x7c, 0x86, 0x75, 0xbc, 0x69, 0x60, 0x55, 0x58, 0x73, 0x9e, 0x86,
  0xc8, 0x57, 0x67, 0x88, 0x8f, 0x7e, 0xa6, 0x7a, 0xa9, 0x74, 0x78, 0x84,
  0x9a, 0x9b, 0x94, 0x7b, 0xc3, 0x87, 0x79, 0x69, 0x90, 0x7f, 0x7e, 0x78,
  0x72, 0x7a, 0x88, 0x76, 0x91, 0x7e, 0x74, 0x73, 0x7b, 0x77, 0x79, 0x88,
  0x93, 0x92, 0x91, 0x83, 0x6a, 0x8a, 0x57, 0x75, 0x86, 0x6a, 0x93, 0x67,
  0xaf, 0x36, 0x74, 0x8e, 0x7f, 0x88, 0x96, 0x92, 0xf3, 0x67, 0xa6, 0x40,
  0x83, 0x6a, 0xaf, 0x73, 0xc0, 0x51, 0xa3, 0x7d, 0x86, 0x8e, 0xa7, 0x66,
  0xa1, 0x77, 0x95, 0x92, 0x95, 0x8b, 0xa5, 0x91, 0x88, 0x73, 0x81, 0x52,
  0x63, 0x74, 0x6a, 0x6b, 0x86, 0x83, 0x6c, 0x99, 0x7b, 0x87, 0x83, 0x66,
  0x84, 0xa1, 0x7d, 0xad, 0x92, 0x7b, 0x91, 0x7b, 0x94, 0xae, 0x6e, 0xe9,
  0x4a, 0x73, 0x55, 0x82, 0x6e, 0xd1, 0x77, 0x95, 0x81, 0x80, 0x63, 0x7e,
  0x88, 0xcb, 0x68, 0x96, 0x75, 0x78, 0x63, 0x75, 0x87, 0xba, 0x89, 0x6b,
  0x74, 0x87, 0x7c, 0x97, 0x70, 0x70, 0x6e, 0x82, 0x8c, 0x80, 0x68, 0x79,
  0x8d, 0x65, 0x57, 0x3b, 0x6e, 0x68, 0x7b, 0x96, 0xad, 0x4c, 0x5f, 0x4a,
  0x5c, 0x78, 0xc5, 0x81, 0x9d, 0x6b, 0x75, 0x6b, 0xa9, 0x73, 0xad, 0x63,
  0xa6, 0x73, 0x7e, 0x82, 0x56, 0x95, 0x86, 0x77, 0xc8, 0x81, 0x66, 0x6d,
  0x68, 0x93, 0x72, 0x95, 0x84, 0x64, 0x81, 0x70, 0x7f, 0x7f, 0x70, 0x93,
  0x81, 0x79, 0x8e, 0x7f, 0x65, 0x7e, 0x8f, 0x6a, 0x67, 0x7b, 0x55, 0x8a,
  0x91, 0x90, 0x6c, 0x7c, 0x9f, 0x65, 0x92, 0x8b, 0x62, 0x76, 0xa7, 0x85,
  0xd7, 0x63, 0xb5, 0x45, 0x41, 0x6f, 0xaa, 0xa4, 0xc8, 0x6b, 0x86, 0x77,
  0x91, 0x74, 0x9d, 0x7b, 0x92, 0x6c, 0xaa, 0x69, 0x57, 0x82, 0xa0, 0x60,
  0x80, 0x7b, 0x87, 0x6e, 0x70, 0x70, 0x5f, 0x5a, 0x8a, 0x7e, 0x62, 0x67,
  0x6d, 0x65, 0x5f, 0x75, 0x8f, 0xab, 0x6d, 0xb8, 0x50, 0x72, 0x92, 0x7b,
  0x84, 0xc9, 0x59, 0xda, 0x73, 0x74, 0x66, 0x92, 0x7a, 0xaf, 0x52, 0x96,
  0x58, 0x8c, 0x3d, 0x95, 0x6c, 0xb4, 0x5d, 0x91, 0x78, 0x91, 0x68, 0xaf,
  0x8a, 0xb0, 0x5f, 0x94, 0x6b, 0x6f, 0x76, 0x83, 0x7a, 0x6a, 0x91, 0x86,
  0x5c, 0x7a, 0x79, 0x65, 0xa0, 0x45, 0x6e, 0x73, 0x8a, 0x65, 0x78, 0x8d,
  0xbe, 0x43, 0x8a, 0x5c, 0x7c, 0x6f, 0xa7, 0x7a, 0xb6, 0x4e, 0x80, 0x75,
  0x76, 0x6a, 0x94, 0x86, 0xd0, 0x67, 0x7a, 0x8d, 0x84, 0x81, 0x96, 0x8a,
  0xbc, 0x67, 0x6b, 0x7b, 0x7b, 0x91, 0x90, 0x8a, 0x88, 0x6e, 0x73, 0x66,
  0x68, 0x7f, 0x70, 0x83, 0x75, 0x77, 0x75, 0x8a, 0x6d, 0x96, 0x6e, 0x7f,
  0x92, 0x65, 0x8b, 0x94, 0x84, 0x72, 0x76, 0x82, 0xaf, 0x3e, 0x78, 0x96,
  0x87, 0x6b, 0xa5, 0x8b, 0xef, 0x57, 0xa7, 0x46, 0x59, 0x68, 0xac, 0x6e,
  0xce, 0x5d, 0xbc, 0x7d, 0x6c, 0x79, 0x87, 0xb5, 0x8e, 0x4e, 0x7d, 0x80,
  0x7c, 0x74, 0x9f, 0x6c, 0x8b, 0x68, 0x8f, 0x82, 0x66, 0x72, 0x74, 0x5a,
  0x83, 0x7a, 0x5d, 0x77, 0x84, 0x6f, 0x77, 0x86, 0x8c, 0xaf, 0x59, 0xbd,
  0x85, 0x5a, 0x86, 0x85, 0x90, 0xab, 0x57, 0xe6, 0x77, 0x6a, 0x71, 0x7a,
  0x7a, 0xa8, 0x48, 0xb2, 0x6f, 0x87, 0x7e, 0x97, 0x76, 0xd2, 0x5b, 0xa7,
  0x8f, 0x85, 0x7a, 0x7b, 0x6a, 0xa9, 0x7a, 0x76, 0x76, 0x86, 0x77, 0x84,
  0x7d, 0x70, 0x93, 0x7b, 0x7a, 0x8a, 0x63, 0x79, 0x91, 0x4f, 0x62, 0x6d,
  0x95, 0x6b, 0x71, 0x94, 0x96, 0x72, 0x82, 0x6b, 0x8a, 0x82, 0x80, 0x94,
  0xb6, 0x65, 0x8f, 0x57, 0x81, 0x71, 0x94, 0x8d, 0xbc, 0x59, 0x88, 0x7b,
  0xa7, 0x71, 0xa2, 0x86, 0xc1, 0x6f, 0x89, 0x54, 0x7a, 0x87, 0x9a, 0x87,
  0x81, 0x81, 0x79, 0x71, 0x8d, 0x7e, 0x72, 0x87, 0x71, 0x87, 0x6e, 0x80,
  0x84, 0x96, 0x7e, 0x76, 0x88, 0x8c, 0x61, 0x8c, 0x86, 0x6d, 0xa4, 0x6f,
  0xc6, 0x55, 0x7d, 0x91, 0x70, 0x81, 0xb1, 0x64, 0xd8, 0x4c, 0x93, 0x33,
  0x53, 0x6f, 0xa0, 0x8c, 0xb0, 0x7b, 0xa2, 0x7a, 0xae, 0x62, 0xb5, 0x87,
  0x9a, 0x5c, 0x9e, 0x5d, 0x53, 0x78, 0x8b, 0x7b, 0x74, 0x7e, 0x87, 0x7e,
  0x6f, 0x61, 0x5b, 0x7d, 0x85, 0x87, 0x56, 0x77, 0x8f, 0x68, 0x8a, 0x82,
  0xba, 0xaa, 0x55, 0xc2, 0x81, 0x70, 0x79, 0x89, 0x91, 0x96, 0x6b, 0xd2,
  0x4e, 0x5b, 0x84, 0x91, 0x6d, 0xbf, 0x4a, 0xb0, 0x94, 0x77, 0x71, 0x85,
  0x79, 0xb1, 0x6f, 0x94, 0x82, 0x7f, 0x82, 0x99, 0x81, 0xa1, 0x64, 0x90,
  0x85, 0x72, 0x6e, 0x76, 0x91, 0x59, 0x84, 0x8a, 0xa0, 0x80, 0x64, 0x79,
  0x99, 0x65, 0x66, 0x53, 0x7a, 0x7e, 0x7d, 0x91, 0xb1, 0x4c, 0x76, 0x83,
  0x9e, 0x6d, 0x97, 0x83, 0xba, 0x55, 0x79, 0x6c, 0x81, 0x73, 0xa8, 0x84,
  0xc5, 0x5a, 0x60, 0x73, 0x9b, 0x86, 0x83, 0x71, 0xa6, 0x71, 0x86, 0x7a,
  0x69, 0x80, 0x6a, 0x6d, 0x9e, 0x92, 0x87, 0x55, 0x70, 0x7c, 0x72, 0x98,
  0x85, 0x6b, 0x9c, 0x9d, 0x6c, 0x8c, 0x84, 0x78, 0x6b, 0x8f, 0x80, 0x9b,
  0x9a, 0x77, 0xa6, 0x6c, 0xb9, 0x32, 0x7c, 0x9d, 0x74, 0x7f, 0xb7, 0x6e,
  0xde, 0x4d, 0x95, 0x2e, 0x43, 0x64, 0xc4, 0x8a, 0xc5, 0x55, 0x9f, 0x6e,
  0x87, 0x81, 0x98, 0x91, 0x6f, 0x7c, 0xaf, 0x84, 0x75, 0x76, 0xca, 0x79,
  0x5e, 0x82, 0x78, 0x53, 0x3c, 0x68, 0x57, 0x42, 0x65, 0xa2, 0x66, 0x66,
  0x66, 0x6a, 0x83, 0x9b, 0x88, 0xbc, 0x66, 0xc0, 0x7c, 0x55, 0x7c, 0x71,
  0x9e, 0x99, 0x72, 0xc3, 0x70, 0x7e, 0x79, 0x9c, 0x72, 0xc7, 0x5c, 0xb0,
  0x93, 0x7d, 0x6c, 0x93, 0x77, 0xc5, 0x6a, 0x98, 0x63, 0x8c, 0x7a, 0x95,
  0x73, 0x98, 0x48, 0x7e, 0x8d, 0x7f, 0x76, 0x90, 0x9d, 0x66, 0x8a, 0x8c,
  0x5f, 0x92, 0x59, 0x9b, 0x9f, 0x66, 0x90, 0x6e, 0xac, 0x87, 0x7d, 0x7b,
  0xa3, 0x65, 0x87, 0x77, 0x52, 0x87, 0x7d, 0x66, 0xb8, 0x62, 0x7d, 0x6c,
  0x85, 0x83, 0x8e, 0x6d, 0xbd, 0x63, 0x82, 0x7d, 0x8b, 0x74, 0x8d, 0x89,
  0x93, 0x6a, 0x7c, 0x7c, 0x79, 0x80, 0x8a, 0x85, 0x7a, 0x77, 0x7b, 0x59,
  0x77, 0x72, 0x6d, 0x7b, 0x78, 0x86, 0xab, 0xa6, 0x70, 0x7d, 0x8c, 0x75,
  0xa8, 0x49, 0x68, 0x73, 0xa0, 0x70, 0xa8, 0x7e, 0x97, 0x52, 0x94, 0x8a,
  0x8f, 0x6d, 0xbb, 0x75, 0xb1, 0x4a, 0xaa, 0x3c, 0x5a, 0x6e, 0x9c, 0x9a,
  0xc4, 0x52, 0x9c, 0x8d, 0x71, 0x59, 0x97, 0x68, 0x7b, 0x46, 0x85, 0x85,
  0x70, 0x66, 0x9c, 0x7f, 0x7b, 0x88, 0x6d, 0x67, 0x6f, 0x4f, 0x75, 0x72,
  0x73, 0x7c, 0x5b, 0x80, 0x80, 0x52, 0x8c, 0x8b, 0xaa, 0xae, 0x56, 0xd9,
  0x5c, 0x67, 0x84, 0xa0, 0x92, 0xa1, 0x41, 0xd3, 0x85, 0x81, 0x6d, 0x84,
  0x74, 0xb6, 0x57, 0x9b, 0x82, 0x7a, 0x63, 0xaa, 0x78, 0xc1, 0x4a, 0xa3,
  0x4d, 0x79, 0x91, 0x94, 0x84, 0x8e, 0x6a, 0x92, 0x49, 0x74, 0x92, 0x9b,
  0x87, 0x75, 0x78, 0x8f, 0x9c, 0x76, 0x73, 0x82, 0x96, 0x62, 0x87, 0x68,
  0x81, 0x6d, 0x78, 0x74, 0xa6, 0x5f, 0x82, 0x65, 0x6e, 0x68, 0x90, 0x65,
  0xa1, 0x7b, 0x82, 0x82, 0x72, 0x77, 0x91, 0x80, 0xcf, 0x89, 0x7c, 0x7c,
  0x53, 0x78, 0x8e, 0x8f, 0xab, 0x78, 0x8f, 0x6c, 0x97, 0x89, 0x73, 0x96,
  0x8a, 0x7e, 0x9a, 0x6d, 0x69, 0x7b, 0x7f, 0xa5, 0x8e, 0x72, 0xa8, 0x75,
  0x92, 0x92, 0x64, 0x66, 0x74, 0x62, 0x85, 0xa3, 0x8a, 0x78, 0x8f, 0x70,
  0x9f, 0x2a, 0x74, 0x9e, 0x96, 0x7e, 0xdc, 0x5f, 0xcc, 0x49, 0x92, 0x60,
  0x73, 0x71, 0x9f, 0x75, 0xd9, 0x5d, 0x90, 0x97, 0x67, 0x59, 0xa9, 0x74,
  0x8d, 0x6b, 0x8e, 0x82, 0xa0, 0x83, 0x9d, 0x65, 0x7a, 0x77, 0x7f, 0x84,
  0x42, 0x81, 0x75, 0x76, 0x9a, 0x8b, 0x52, 0x81, 0x98, 0x64, 0x79, 0x80,
  0x9a, 0xb0, 0x65, 0xa3, 0x72, 0x69, 0x7a, 0x8d, 0x99, 0xbe, 0x46, 0x94,
  0x80, 0x70, 0x81, 0x87, 0x73, 0xaf, 0x57, 0xbe, 0x7c, 0x83, 0x71, 0xb6,
  0x87, 0xba, 0x73, 0x8f, 0x65, 0x81, 0x92, 0x7e, 0x74, 0x91, 0x51, 0xaf,
  0x79, 0x7c, 0x87, 0xab, 0x73, 0x68, 0x9a, 0x66, 0x88, 0x92, 0x7a, 0x8a,
  0x7d, 0x4c, 0x8c, 0x67, 0xa9, 0x87, 0x6e, 0x87, 0x99, 0x79, 0x52, 0x7a,
  0x6f, 0x93, 0x92, 0x6a, 0xc2, 0x6e, 0x71, 0x76, 0x9b, 0x86, 0x84, 0x8d,
  0xc2, 0x89, 0x7f, 0x83, 0x9c, 0x87, 0x9a, 0xa3, 0x95, 0x6c, 0x76, 0x62,
  0x4f, 0x70, 0x6a, 0x95, 0x8a, 0x87, 0x83, 0x5b, 0x63, 0x80, 0x64, 0x8e,
  0x60, 0x78, 0x92, 0x90, 0x80, 0x85, 0x78, 0x73, 0x66, 0x40, 0x8d, 0xa0,
  0xa1, 0x7f, 0xb8, 0x4a, 0x9a, 0x10, 0x85, 0xaf, 0x77, 0x6f, 0xc4, 0x72,
  0xc5, 0x54, 0x82, 0x45, 0x79, 0x45, 0xc2, 0x5c, 0xcc, 0x66, 0x9c, 0x70,
  0x7c, 0x57, 0xbd, 0x81, 0x89, 0x5e, 0x83, 0x7e, 0x88, 0x66, 0x97, 0x92,
  0x85, 0x6c, 0x5f, 0x8d, 0x78, 0x77, 0x7e, 0x73, 0x8b, 0x91, 0x39, 0x85,
  0x5d, 0x5a, 0x8d, 0x82, 0xbc, 0xc0, 0x5e, 0xc2, 0x88, 0x57, 0x95, 0xa3,
  0x8d, 0x95, 0x67, 0x9d, 0x70, 0x6d, 0xaa, 0x8b, 0x7b, 0xb5, 0x40, 0xa7,
  0xa5, 0x7e, 0x77, 0x86, 0x83, 0xaf, 0x5d, 0x9b, 0x74, 0x81, 0x83, 0x8e,
  0x86, 0xb0, 0x70, 0x8e, 0x7a, 0x7c, 0x7e, 0xa7, 0x6a, 0x5d, 0x53, 0x79,
  0x9c, 0x7f, 0x8c, 0x9d, 0x8d, 0x42, 0x90, 0x71, 0x5d, 0x96, 0x8c, 0x8f,
  0xb8, 0x7a, 0x8f, 0x6e, 0x6a, 0x7a, 0x81, 0x8b, 0x9f, 0x6b, 0x78, 0x65,
  0x7a, 0x72, 0x80, 0x7c, 0x9b, 0x8c, 0x7a, 0x6e, 0x70, 0x92, 0x8f, 0x87,
  0xa4, 0x6a, 0x88, 0x6c, 0x56, 0x7e, 0x8f, 0x81, 0x84, 0x73, 0x9e, 0x60,
  0x6f, 0x7a, 0x88, 0x87, 0x70, 0x6a, 0x76, 0x88, 0x77, 0x7f, 0x83, 0x67,
  0x7a, 0x7c, 0x5a, 0xa8, 0x7c, 0x6f, 0x97, 0x80, 0x7e, 0x29, 0x83, 0xaa,
  0x88, 0x4f, 0xa7, 0x79, 0xcb, 0x43, 0x8c, 0x60, 0x72, 0x62, 0xa4, 0x76,
  0xa6, 0x47, 0x98, 0x85, 0x7a, 0x72, 0xc0, 0x89, 0x70, 0x62, 0x7d, 0x75,
  0x8d, 0x6b, 0xa7, 0x8f, 0x64, 0x6d, 0x7f, 0x76, 0x8b, 0x73, 0xad, 0x7f,
  0x78, 0x9c, 0x5b, 0xa5, 0x79, 0x57, 0x67, 0x80, 0xbe, 0xb4, 0x3f, 0xa6,
  0x4d, 0x62, 0x85, 0x79, 0xa6, 0xb8, 0x57, 0xa1, 0x66, 0x77, 0xa0, 0x72,
  0x71, 0xb6, 0x5d, 0xa1, 0x8b, 0x8b, 0x78, 0x9e, 0x7f, 0xbb, 0x62, 0x9c,
  0x97, 0x85, 0x75, 0xa7, 0x7f, 0x9c, 0x8a, 0xa4, 0x66, 0x7e, 0x9d, 0x99,
  0x6c, 0x4c, 0x86, 0x7f, 0x91, 0x99, 0x72, 0x7b, 0x74, 0x58, 0x94, 0x67,
  0x9c, 0x7c, 0x8a, 0x5b, 0xab, 0x81, 0x87, 0x6d, 0x9b, 0x70, 0x8e, 0x90,
  0x8f, 0x79, 0x94, 0x5e, 0x86, 0x74, 0x8f, 0x97, 0xb4, 0x7b, 0x8c, 0x67,
  0x7e, 0x7e, 0x80, 0x9c, 0x9c, 0x67, 0x6e, 0x3c, 0x63, 0x9c, 0x70, 0xa2,
  0x7c, 0x83, 0x81, 0x5b, 0x72, 0x83, 0x7e, 0x8f, 0x75, 0x79, 0x9d, 0x91,
  0x5f, 0x76, 0x7e, 0x5a, 0x69, 0x5d, 0x96, 0x8f, 0x91, 0x77, 0xac, 0x75,
  0x88, 0x44, 0x68, 0x83, 0x98, 0x6f, 0xc9, 0x58, 0xce, 0x54, 0x88, 0x68,
  0x66, 0x67, 0xbd, 0x71, 0xc9, 0x53, 0x84, 0x5e, 0x79, 0x61, 0xc5, 0x6f,
  0xaf, 0x8c, 0x7a, 0x64, 0x7c, 0x5e, 0xbb, 0x78, 0x7b, 0x88, 0x66, 0x6b,
  0x75, 0x62, 0x7f, 0x70, 0x85, 0xb2, 0x55, 0x9c, 0x5a, 0x65, 0x78, 0x56,
  0xb0, 0xad, 0x5e, 0xbf, 0x87, 0x72, 0x84, 0x82, 0x93, 0x98, 0x3b, 0xc0,
  0x8f, 0x7c, 0x94, 0x85, 0x74, 0xb7, 0x5e, 0x90, 0x79, 0x99, 0x9b, 0x9e,
  0x7a, 0x9e, 0x50, 0x9b, 0x91, 0x7e, 0x75, 0xa6, 0x78, 0xaf, 0x77, 0xaf,
  0x8f, 0x63, 0xac, 0x97, 0x69, 0x6c, 0x86, 0x76, 0x86, 0xa5, 0x8d, 0x6f,
  0x4d, 0x57, 0x97, 0x68, 0x94, 0x77, 0x8e, 0x86, 0x84, 0x77, 0x8b, 0x6c,
  0x54, 0x75, 0x89, 0x80, 0xa0, 0x7e, 0x85, 0x6d, 0x6f, 0x7f, 0xb7, 0x8d,
  0x78, 0x72, 0x8d, 0x5f, 0x84, 0x82, 0x93, 0xa1, 0x98, 0x6c, 0x6b, 0x51,
  0x73, 0x7b, 0x84, 0x91, 0x7a, 0x86, 0x7d, 0x77, 0x79, 0x67, 0x7b, 0x88,
  0x67, 0x6c, 0x8e, 0x84, 0x91, 0x80, 0x7f, 0x69, 0x62, 0x76, 0x68, 0x85,
  0x91, 0x80, 0xc5, 0x6b, 0x8f, 0x30, 0x83, 0xa1, 0x7a, 0x64, 0xb0, 0x50,
  0xc5, 0x4a, 0x76, 0x49, 0x8b, 0x27, 0xbd, 0x5e, 0xb9, 0x67, 0x7a, 0x8b,
  0x76, 0x4c, 0xba, 0x68, 0x9a, 0x7f, 0x64, 0x6c, 0x8e, 0x6b, 0x95, 0x7e,
  0x7c, 0x81, 0x4d, 0x80, 0x74, 0x5c, 0x8f, 0x81, 0x90, 0x9f, 0x4d, 0xa9,
  0x89, 0x4a, 0x99, 0x84, 0x97, 0xb0, 0x3e, 0xac, 0x6c, 0x5c, 0x81, 0x77,
  0x78, 0x90, 0x58, 0x9d, 0xa6, 0x7f, 0x9a, 0x84, 0x7e, 0x92, 0x6a, 0x94,
  0x59, 0x7a, 0x7e, 0x98, 0x79, 0xa8, 0x7f, 0x82, 0x59, 0x90, 0x85, 0x82,
  0x67, 0xa8, 0x61, 0x78, 0x81, 0x7b, 0xa2, 0x90, 0x7c, 0x6e, 0x77, 0x5d,
  0x75, 0x93, 0x89, 0x91, 0x6d, 0x40, 0x8b, 0x84, 0x85, 0x82, 0x83, 0x7d,
  0x95, 0x73, 0x87, 0x7e, 0x75, 0x81, 0x92, 0x8c, 0x84, 0x7f, 0x7a, 0x7f,
  0x83, 0x8e, 0xa3, 0x9e, 0x7c, 0x7c, 0x70, 0x66, 0x6d, 0x7d, 0x7a, 0x82,
  0x90, 0x60, 0x8f, 0x55, 0x74, 0x8d, 0x88, 0x8e, 0x76, 0x51, 0x8c, 0x68,
  0x7e, 0x75, 0x7d, 0x86, 0x7c, 0x57, 0x68, 0x9e, 0x63, 0x9d, 0x82, 0x7e,
  0x7e, 0x54, 0x7e, 0xa0, 0x6f, 0x7b, 0x94, 0x7a, 0x83, 0x4a, 0x4f, 0x9a,
  0x85, 0x62, 0x96, 0x78, 0xab, 0x51, 0x99, 0x6d, 0x89, 0x62, 0x9f, 0x66,
  0xce, 0x80, 0x88, 0x8c, 0x5d, 0x4d, 0xbd, 0x99, 0xa5, 0x86, 0x76, 0x62,
  0x81, 0x71, 0xa5, 0x68, 0x7f, 0x80, 0x65, 0x77, 0x6f, 0x61, 0x7e, 0x8a,
  0x98, 0x98, 0x60, 0x90, 0x64, 0x41, 0x8c, 0x92, 0x9d, 0xbc, 0x61, 0xd1,
  0x80, 0x6d, 0x85, 0x95, 0x88, 0x98, 0x5c, 0xa9, 0x75, 0x78, 0x94, 0x81,
  0x9a, 0x95, 0x5b, 0x80, 0x77, 0x81, 0x6d, 0x94, 0x5f, 0x76, 0x63, 0x84,
  0x68, 0x82, 0x89, 0x81, 0x89, 0xa4, 0x8f, 0x95, 0x7d, 0x80, 0x9c, 0x85,
  0x61, 0x6e, 0x8a, 0x95, 0x8d, 0xa9, 0x89, 0x77, 0x77, 0x53, 0x80, 0x68,
  0x80, 0x7f, 0x8a, 0x8c, 0x82, 0x70, 0x68, 0x64, 0x87, 0x6e, 0x84, 0x70,
  0xae, 0x5b, 0x8b, 0x68, 0x94, 0x7f, 0xa2, 0xac, 0x79, 0x62, 0x99, 0x74,
  0x48, 0x5e, 0x9b, 0x77, 0x78, 0x6b, 0x99, 0x4f, 0x8c, 0x94, 0x84, 0x87,
  0x81, 0x64, 0x84, 0x6d, 0x67, 0x75, 0x74, 0x72, 0x6e, 0x66, 0x86, 0x97,
  0x8a, 0x8d, 0x6c, 0x77, 0x7a, 0x97, 0x70, 0x9b, 0x9f, 0x60, 0x75, 0x72,
  0x8f, 0x6c, 0x70, 0x97, 0x9d, 0x6b, 0x94, 0x68, 0xbc, 0x4b, 0x72, 0x73,
  0x9a, 0x3c, 0xc4, 0x5c, 0xb9, 0x6e, 0x7d, 0x78, 0x73, 0x5e, 0xb1, 0x69,
  0xbd, 0x74, 0x77, 0x6f, 0x92, 0x51, 0x93, 0x96, 0x8d, 0x82, 0x8d, 0x60,
  0x6c, 0x3a, 0x88, 0x79, 0x90, 0x74, 0x68, 0x8c, 0x67, 0x51, 0x8a, 0x71,
  0xae, 0xb5, 0x72, 0xc3, 0x62, 0x3e, 0xa0, 0x86, 0xa9, 0xa8, 0x67, 0x98,
  0x73, 0x50, 0x98, 0x6a, 0x75, 0x98, 0x65, 0x71, 0x8a, 0x8f, 0x75, 0x76,
  0x89, 0x76, 0x85, 0x8d, 0xab, 0x77, 0x99, 0xb0, 0x9a, 0x8d, 0x95, 0x7e,
  0x62, 0x7f, 0x9c, 0x6a, 0x71, 0x85, 0x8a, 0x78, 0x77, 0x8d, 0x7a, 0x7a,
  0x70, 0x50, 0x95, 0x93, 0x96, 0x71, 0x9d, 0x90, 0x93, 0x84, 0x88, 0x60,
  0x87, 0x86, 0x98, 0x89, 0xa0, 0x85, 0x63, 0x71, 0x84, 0x74, 0x89, 0x8b,
  0x7e, 0x5d, 0x6a, 0x5d, 0x80, 0x7c, 0x91, 0x81, 0x73, 0x6a, 0x6e, 0x71,
  0x93, 0x75, 0x7d, 0x7e, 0x73, 0x5e, 0x7d, 0xab, 0x73, 0x85, 0x72, 0x89,
  0x63, 0x77, 0x8f, 0xa1, 0x7c, 0x9d, 0x84, 0x8c, 0x69, 0xa2, 0x9e, 0xb2,
  0x79, 0x76, 0xb1, 0x5c, 0x80, 0x89, 0x54, 0x9f, 0x72, 0x54, 0x7a, 0x78,
  0xc1, 0x82, 0x9f, 0x66, 0x4c, 0x57, 0x73, 0x60, 0x96, 0x81, 0x91, 0x86,
  0x42, 0x58, 0x8a, 0x6c, 0xd3, 0x6c, 0x69, 0x92, 0x64, 0x41, 0x63, 0x73,
  0xa2, 0x7d, 0x7a, 0x72, 0x68, 0x68, 0x6e, 0x61, 0x87, 0x6f, 0x84, 0x99,
  0x83, 0x6e, 0x65, 0x58, 0xc9, 0x95, 0x59, 0xb3, 0x71, 0x5c, 0x4f, 0x8d,
  0xa3, 0xa0, 0x78, 0xa0, 0x6c, 0x64, 0x88, 0x8e, 0x98, 0xaa, 0x8c, 0x78,
  0x66, 0x97, 0x6e, 0x8f, 0x61, 0x87, 0x44, 0x8d, 0x8b, 0x7c, 0x7e, 0x85,
  0x79, 0x9d, 0x74, 0x90, 0x76, 0x73, 0x9a, 0x90, 0x97, 0x76, 0x7e, 0x95,
  0x72, 0x75, 0x5f, 0x7d, 0x5a, 0x63, 0x82, 0x80, 0x7e, 0x77, 0x72, 0x73,
  0x6d, 0x6e, 0x70, 0x7e, 0x98, 0x84, 0x98, 0x81, 0xb0, 0x85, 0x94, 0x85,
  0x7f, 0x6b, 0x78, 0x81, 0x92, 0x7f, 0x5e, 0x60, 0x71, 0x82, 0x7c, 0x8b,
  0x8a, 0x5b, 0x6f, 0x43, 0x86, 0x7c, 0x83, 0x6e, 0x8c, 0x72, 0x6d, 0x8b,
  0x5e, 0xa5, 0x72, 0x62, 0x74, 0x57, 0x98, 0x99, 0x75, 0x88, 0x64, 0x65,
  0x7d, 0x4a, 0x94, 0x85, 0x52, 0x8a, 0x84, 0x90, 0x95, 0x5f, 0x70, 0xae,
  0x91, 0x7f, 0x7e, 0x64, 0xa8, 0x91, 0x7b, 0x7c, 0x5b, 0x70, 0x86, 0x48,
  0x87, 0x67, 0x9a, 0x84, 0x8f, 0x70, 0x75, 0x5d, 0xbf, 0x80, 0x68, 0x74,
  0x69, 0x74, 0x48, 0x8f, 0x96, 0xa3, 0xa2, 0x70, 0x87, 0x6d, 0x53, 0x89,
  0x7d, 0xa6, 0x57, 0x99, 0x56, 0x67, 0x58, 0x79, 0x93, 0x97, 0x79, 0xc4,
  0x69, 0x59, 0x69, 0x61, 0x9e, 0x6c, 0x69, 0x8c, 0x7d, 0x79, 0x9d, 0x67,
  0xa2, 0x7e, 0x82, 0x77, 0x6d, 0x80, 0x64, 0x8c, 0x83, 0x5d, 0x5d, 0x87,
  0x64, 0x8c, 0x77, 0x95, 0x85, 0x7a, 0x5e, 0x6d, 0x83, 0x7c, 0x9d, 0x68,
  0x72, 0x71, 0x7b, 0x79, 0x71, 0x74, 0x88, 0x89, 0x7a, 0x74, 0x75, 0x8b,
  0x9e, 0x70, 0x6b, 0x76, 0x6f, 0x58, 0x8c, 0x8c, 0x59, 0x87, 0x95, 0x83,
  0x87, 0x93, 0x59, 0x7d, 0x88, 0x95, 0x95, 0x98, 0x86, 0x63, 0xa4, 0x64,
  0x45, 0x78, 0x76, 0x8a, 0x69, 0x87, 0x62, 0x71, 0x9f, 0x92, 0x65, 0x47,
  0x68, 0x86, 0x8f, 0x78, 0x69, 0x6c, 0x81, 0x76, 0x5c, 0x70, 0x5d, 0x59,
  0x72, 0x79, 0x7b, 0x61, 0x76, 0x8b, 0x91, 0x86, 0x7d, 0x7f, 0x8e, 0x72,
  0xa4, 0x6f, 0x79, 0x78, 0x7d, 0x8a, 0x72, 0x6f, 0x5b, 0x73, 0x7f, 0x83,
  0x89, 0x86, 0x6f, 0x8f, 0x99, 0x69, 0x90, 0x76, 0x90, 0x77, 0x5e, 0x87,
  0x5c, 0x8a, 0x87, 0x40, 0xa1, 0x9f, 0x9d, 0x95, 0x6c, 0x87, 0x85, 0x6f,
  0x98, 0x9d, 0x89, 0x9c, 0x96, 0x63, 0x79, 0x69, 0x91, 0x64, 0xa7, 0x6b,
  0x7e, 0x70, 0x7e, 0x5d, 0x87, 0x93, 0x7c, 0x96, 0x81, 0x69, 0x95, 0x6d,
  0x4f, 0x73, 0x76, 0xaa, 0x97, 0x7d, 0xa2, 0x74, 0x6f, 0x82, 0x88, 0x62,
  0x86, 0x79, 0x92, 0x88, 0x8d, 0x8a, 0x83, 0x84, 0x52, 0x7f, 0x87, 0xa3,
  0x55, 0x76, 0x89, 0xa1, 0x7c, 0x7c, 0x84, 0x89, 0x48, 0x6e, 0x7c, 0x8b,
  0x8e, 0x63, 0x93, 0x74, 0x64, 0xaf, 0x65, 0x79, 0x9a, 0x79, 0x96, 0x84,
  0x65, 0xa1, 0x6f, 0x75, 0x71, 0x69, 0x88, 0x81, 0x9d, 0xad, 0x63, 0x82,
  0x91, 0x89, 0x75, 0x8c, 0x8c, 0xa3, 0x71, 0x5c, 0x77, 0x73, 0x89, 0x78,
  0x80, 0x7a, 0x7b, 0x5f, 0x70, 0x76, 0x87, 0x7a, 0x5d, 0x93, 0x95, 0x6d,
  0x84, 0x7f, 0x7b, 0x54, 0x79, 0x92, 0x79, 0x95, 0x5c, 0x8c, 0x83, 0x86,
  0x75, 0x87, 0x73, 0x76, 0x79, 0x82, 0x92, 0x7c, 0x6f, 0x89, 0x9d, 0xa9,
  0x5d, 0x7b, 0x7b, 0x72, 0x82, 0x74, 0x7a, 0x74, 0x88, 0x8a, 0x8b, 0x65,
  0x90, 0x74, 0x75, 0x92, 0x88, 0x8b, 0x78, 0xa1, 0x86, 0x94, 0x73, 0x94,
  0x87, 0x90, 0x8a, 0x77, 0x7d, 0x99, 0x7c, 0x8a, 0x5e, 0x91, 0x94, 0x5e,
  0x9c, 0x81, 0x6a, 0x84, 0x8d, 0x7d, 0x89, 0x33, 0xa9, 0x98, 0x6a, 0x8a,
  0x76, 0x75, 0x91, 0x66, 0x93, 0x94, 0x92, 0x61, 0x92, 0x98, 0x8a, 0x6e,
  0x6c, 0x76, 0xa8, 0xa4, 0x7d, 0x86, 0x85, 0x6a, 0x62, 0x7a, 0x5b, 0x7c,
  0x6f, 0x7f, 0x70, 0x52, 0x81, 0x8a, 0x6d, 0x79, 0x83, 0x6d, 0x9c, 0x67,
  0x87, 0x84, 0x91, 0xa7, 0x8a, 0x75, 0x6d, 0x63, 0x75, 0xa2, 0x75, 0x79,
  0x81, 0x70, 0x91, 0x6c, 0x7c, 0x8d, 0x92, 0x8f, 0x69, 0x7c, 0x77, 0x6a,
  0x63, 0x80, 0x60, 0xaa, 0x6d, 0x83, 0x8f, 0x5b, 0x7c, 0x71, 0x7f, 0x7a,
  0x70, 0x6e, 0x6c, 0x74, 0x92, 0x6e, 0x8f, 0xa1, 0x76, 0x7a, 0x96, 0x71,
  0x8b, 0x96, 0x76, 0x78, 0x84, 0x76, 0x63, 0x7b, 0x8a, 0x85, 0x64, 0x82,
  0x96, 0x8a, 0x95, 0x7f, 0x61, 0x74, 0x70, 0x8b, 0x5b, 0x93, 0x7a, 0x8b,
  0x77, 0x8e, 0x91, 0x5a, 0x5b, 0xa2, 0x5c, 0x6d, 0x75, 0x72, 0x61, 0x85,
  0xa0, 0xa7, 0x67, 0x91, 0x94, 0x72, 0xa3, 0x92, 0x74, 0xa7, 0x54, 0x8e,
  0x7b, 0x72, 0x84, 0x7b, 0x7c, 0x93, 0x8e, 0x9f, 0xa6, 0x94, 0x84, 0xaa,
  0x72, 0x86, 0x6b, 0x76, 0x96, 0x89, 0x6c, 0x84, 0x6e, 0x67, 0x87, 0x3e,
  0x7f, 0x61, 0x87, 0x8c, 0x92, 0x5c, 0x77, 0x65, 0x77, 0x77, 0x70, 0x81,
  0x98, 0x66, 0x81, 0x64, 0x85, 0x7d, 0x6a, 0x73, 0x91, 0x75, 0x9f, 0x46,
  0x67, 0x72, 0xaf, 0x60, 0xb1, 0x6d, 0x66, 0x4b, 0x50, 0x80, 0x80, 0x90,
  0x9e, 0x5f, 0x80, 0x49, 0x65, 0x81, 0x6c, 0x95, 0x87, 0x65, 0x88, 0x5a,
  0x7b, 0x81, 0x6f, 0x6d, 0x9b, 0x81, 0x9b, 0x55, 0x84, 0x70, 0x71, 0x8f,
  0x89, 0x81, 0x54, 0x69, 0x97, 0xba, 0x86, 0xa0, 0x84, 0x8e, 0xa3, 0x64,
  0x6b, 0xad, 0x6a, 0x7e, 0x5d, 0x87, 0x80, 0x73, 0x69, 0x88, 0x83, 0x60,
  0x75, 0x82, 0x84, 0x5e, 0x93, 0x8f, 0x89, 0x9a, 0x83, 0x82, 0x8c, 0x65,
  0x87, 0x98, 0x4f, 0x89, 0x68, 0x83, 0x6d, 0x78, 0x7f, 0x83, 0x60, 0x6e,
  0x89, 0x6e, 0x76, 0x95, 0x72, 0x84, 0x7c, 0x9e, 0x7c, 0x78, 0x80, 0x89,
  0x56, 0x5e, 0x7a, 0xa9, 0x83, 0xb7, 0x51, 0x93, 0x71, 0x8e, 0x82, 0x77,
  0x69, 0xac, 0x59, 0x8c, 0x5e, 0x6f, 0x54, 0x79, 0x8f, 0x82, 0x7a, 0xb9,
  0x5f, 0x76, 0x91, 0x8c, 0x79, 0x8b, 0x7f, 0x5d, 0x87, 0x8b, 0x55, 0x7c,
  0x61, 0x51, 0x5c, 0x6d, 0x77, 0x98, 0x92, 0x9b, 0x8e, 0x53, 0x6e, 0x6b,
  0xa5, 0x76, 0x88, 0x60, 0xba, 0x53, 0x6f, 0x77, 0x56, 0x65, 0x97, 0x63,
  0xb6, 0x49, 0x78, 0x64, 0x68, 0x94, 0xb3, 0x68, 0x86, 0x62, 0x92, 0x6e,
  0x60, 0x64, 0x9c, 0x6d, 0x96, 0x58, 0x8c, 0x6f, 0x74, 0xad, 0x61, 0x64,
  0x85, 0x6e, 0x9c, 0x7a, 0x6f, 0x7d, 0x78, 0x6a, 0x8c, 0x85, 0x7b, 0x5e,
  0x63, 0x71, 0x78, 0x7c, 0x83, 0x81, 0x89, 0x87, 0x54, 0x7e, 0x5f, 0x8a,
  0x5c, 0x83, 0x7f, 0xab, 0x80, 0xab, 0x65, 0x5b, 0x80, 0x8f, 0x77, 0x89,
  0x90, 0x69, 0x54, 0x93, 0x7c, 0x74, 0x7d, 0x6d, 0x74, 0x90, 0x72, 0x7f,
  0x7a, 0x88, 0x6b, 0x95, 0x78, 0x6f, 0x65, 0x7b, 0x60, 0x94, 0x8b, 0x79,
  0x6d, 0x5a, 0x62, 0x67, 0x84, 0x63, 0x78, 0x89, 0xac, 0x6f, 0xb3, 0x71,
  0x91, 0x8c, 0x63, 0x8a, 0x65, 0x6d, 0x71, 0x75, 0x72, 0xa1, 0x80, 0xb5,
  0xa3, 0x53, 0x83, 0x87, 0x80, 0xbd, 0x82, 0xb4, 0x6c, 0x64, 0x77, 0xb0,
  0x86, 0x98, 0x82, 0xd0, 0x6f, 0x87, 0x8d, 0x6b, 0x64, 0x71, 0x56, 0x91,
  0x6e, 0x80, 0x3b, 0x97, 0x71, 0x4b, 0x8a, 0x58, 0x85, 0x72, 0x81, 0x9b,
  0x8c, 0x45, 0x84, 0x6d, 0x96, 0x6a, 0x9f, 0x81, 0xa1, 0x15, 0x6f, 0x5e,
  0x8e, 0x73, 0xa9, 0x9b, 0xb0, 0x45, 0x8d, 0x68, 0x65, 0x7c, 0xb1, 0x99,
  0xb8, 0x7c, 0x79, 0x87, 0x7c, 0x7e, 0x9f, 0x71, 0xb4, 0x68, 0x81, 0x73,
  0x90, 0x8c, 0x61, 0xa2, 0xaa, 0x61, 0x9d, 0xa9, 0x76, 0x5d, 0x91, 0x81,
  0x7c, 0x93, 0x66, 0x88, 0x6c, 0x7b, 0x71, 0x8f, 0x78, 0x6f, 0x92, 0x9c,
  0x8c, 0x80, 0x6a, 0x51, 0x5b, 0x85, 0x71, 0xba, 0x6e, 0x8f, 0x43, 0x82,
  0x5e, 0xa1, 0x9a, 0x8e, 0x81, 0x6c, 0x6b, 0x80, 0x77, 0x67, 0x6c, 0x87,
  0x47, 0x6e, 0x65, 0x54, 0x75, 0x94, 0x85, 0x92, 0x5e, 0x81, 0x6b, 0x80,
  0x80, 0x83, 0x6e, 0x6e, 0x73, 0x75, 0x8f, 0x64, 0x93, 0x4e, 0x6d, 0x64,
  0x9e, 0x70, 0x85, 0x66, 0x6f, 0x94, 0x65, 0x76, 0xa3, 0x73, 0x7b, 0x76,
  0x47, 0xbc, 0x87, 0xb1, 0x8a, 0x66, 0x52, 0x90, 0x5a, 0xa1, 0x79, 0xbf,
  0x67, 0x6f, 0x57, 0xaa, 0x76, 0x88, 0x66, 0xb2, 0x92, 0x91, 0x6a, 0x8b,
  0x61, 0x62, 0x75, 0xa8, 0x93, 0x7e, 0x2d, 0xa8, 0x63, 0x81, 0x8a, 0x78,
  0x5a, 0x5c, 0x74, 0x7d, 0x79, 0x56, 0x52, 0x56, 0x96, 0x63, 0x95, 0x76,
  0x93, 0x19, 0x81, 0x6f, 0x92, 0x56, 0xb8, 0x8e, 0xa1, 0x2e, 0x71, 0x62,
  0x66, 0x62, 0xc4, 0x6d, 0x9c, 0x5a, 0x85, 0x84, 0x78, 0x7c, 0x9c, 0x72,
  0xa4, 0x3b, 0x81, 0x80, 0x48, 0x89, 0x79, 0x5c, 0x9e, 0x5b, 0x5f, 0x94,
  0x83, 0x83, 0x56, 0x6f, 0x76, 0x79, 0x82, 0x8c, 0x87, 0x81, 0x71, 0x5a,
  0x6a, 0x8c, 0x77, 0xb9, 0x61, 0x7c, 0x53, 0x8e, 0x53, 0x71, 0x93, 0xa1,
  0x99, 0x68, 0x4c, 0x81, 0x58, 0x9c, 0x75, 0xcd, 0x67, 0x76, 0x48, 0x84,
  0x6f, 0x7d, 0x64, 0x7f, 0x56, 0x5e, 0x50, 0x5f, 0x8a, 0x83, 0x4d, 0x66,
  0x82, 0x77, 0x78, 0x8d, 0x62, 0x71, 0x95, 0x8c, 0x8d, 0x76, 0x96, 0x96,
  0x75, 0x7a, 0x61, 0x89, 0x5f, 0x7b, 0x7b, 0x5a, 0x73, 0xbb, 0x5e, 0x7a,
  0x3f, 0x5a, 0x60, 0x85, 0x47, 0xbb, 0x5a, 0xa9, 0x7c, 0x5d, 0x17, 0x7b,
  0x5d, 0xc0, 0x8a, 0xb9, 0x69, 0x70, 0x4f, 0xc3, 0x5e, 0xa6, 0x70, 0xca,
  0x80, 0x90, 0x5a, 0xb0, 0x36, 0x7c, 0x8b, 0x9e, 0x68, 0x88, 0x47, 0x96,
  0x3f, 0x7b, 0x7a, 0x94, 0x8b, 0x63, 0x59, 0x87, 0x69, 0x4c, 0x81, 0x7e,
  0xa5, 0x6c, 0x85, 0xa0, 0x93, 0x3f, 0x75, 0x74, 0x7c, 0x68, 0xba, 0x78,
  0x98, 0x44, 0x72, 0x59, 0x76, 0x7a, 0x9d, 0x5e, 0x99, 0x42, 0x5f, 0x8f,
  0x9d, 0x87, 0x8b, 0x8f, 0xc9, 0x4a, 0x9a, 0x9c, 0x67, 0x86, 0x8e, 0x79,
  0x96, 0x3e, 0x6b, 0xa6, 0x66, 0x98, 0x8d, 0x68, 0x6e, 0x78, 0x80, 0xb2,
  0x4e, 0x63, 0x5c, 0x7d, 0x6d, 0x8b, 0x81, 0xc4, 0x68, 0x6b, 0x4b, 0x80,
  0x41, 0x96, 0x77, 0xbd, 0x89, 0x65, 0x24, 0x7e, 0x6e, 0x9e, 0x60, 0xbc,
  0x80, 0x53, 0x7a, 0x78, 0x72, 0x80, 0x62, 0x80, 0x9b, 0x48, 0x4b, 0x60,
  0x79, 0x75, 0x6a, 0x70, 0x74, 0x55, 0x69, 0x77, 0x6a, 0x76, 0x7b, 0x8a,
  0x89, 0x81, 0xba, 0x99, 0x53, 0x69, 0x83, 0x78, 0x96, 0x7a, 0x77, 0x78,
  0x64, 0xb2, 0x5c, 0x87, 0x6f, 0x74, 0x3f, 0x83, 0x4d, 0xb7, 0x5e, 0xc3,
  0x6b, 0x64, 0x0b, 0x6f, 0x58, 0xa8, 0x6b, 0xb4, 0x82, 0x66, 0x65, 0x9e,
  0x4b, 0x96, 0x5a, 0xab, 0x9d, 0x92, 0x27, 0x83, 0x4c, 0x92, 0x7f, 0x8b,
  0x7a, 0x8c, 0x37, 0x91, 0x22, 0x65, 0x84, 0x77, 0x70, 0xae, 0x62, 0x83,
  0x6c, 0x4a, 0x57, 0x67, 0x6b, 0x76, 0x90, 0x5a, 0x90, 0x22, 0x50, 0x76,
  0x9b, 0x58, 0x95, 0x81, 0xae, 0x23, 0x71, 0x5d, 0x7e, 0x80, 0x6d, 0x83,
  0xa7, 0x53, 0x7f, 0x85, 0x59, 0x8d, 0x76, 0x6e, 0xa7, 0x35, 0x8c, 0x80,
  0x54, 0x9e, 0x89, 0x72, 0xa4, 0x51, 0x65, 0xd7, 0x7d, 0x88, 0x5d, 0x88,
  0xa3, 0x99, 0x7d, 0xca, 0x77, 0x75, 0x7c, 0x78, 0x80, 0x9d, 0x74, 0xce,
  0x5c, 0x88, 0x5b, 0x87, 0x56, 0x89, 0x54, 0xc1, 0xa1, 0x7b, 0x5e, 0x77,
  0x7f, 0x7e, 0x7d, 0xb1, 0x7b, 0x72, 0x70, 0x6e, 0x72, 0x80, 0x6e, 0xa7,
  0x5b, 0x67, 0x6b, 0x50, 0x8d, 0x63, 0x76, 0x76, 0x51, 0x7d, 0x58, 0x88,
  0x6e, 0x7d, 0x70, 0x85, 0xa4, 0x61, 0x6d, 0x7e, 0x58, 0x74, 0x5e, 0x83,
  0x7f, 0x84, 0x92, 0x9b, 0x61, 0xa5, 0x6c, 0x94, 0x6a, 0x71, 0x40, 0x7e,
  0x5e, 0xaa, 0x86, 0xad, 0x9b, 0x6b, 0x30, 0x8c, 0x71, 0xbd, 0x5a, 0xc0,
  0x9a, 0x8a, 0x51, 0xb7, 0x48, 0x98, 0x67, 0xd9, 0x76, 0x97, 0x5d, 0x72,
  0x5b, 0x83, 0x71, 0xaf, 0x72, 0x94, 0x2a, 0x87, 0x3d, 0x47, 0x84, 0x85,
  0x74, 0x9a, 0x5f, 0x96, 0x72, 0x5b, 0x68, 0x57, 0x87, 0x93, 0x79, 0x77,
  0xa4, 0x1a, 0x70, 0x49, 0x71, 0x63, 0x97, 0x60, 0xa4, 0x32, 0x7f, 0x6a,
  0x89, 0x74, 0x76, 0x4c, 0xa8, 0x44, 0x7d, 0xad, 0x5b, 0x83, 0x57, 0x6c,
  0x95, 0x57, 0x82, 0x91, 0xac, 0x86, 0x9f, 0x8b, 0xb0, 0x5c, 0x84, 0xb6,
  0x51, 0x7b, 0x8f, 0x65, 0x67, 0x86, 0x6a, 0xba, 0x7b, 0x75, 0x69, 0x75,
  0x72, 0x8c, 0x7e, 0xc0, 0x68, 0x7c, 0x54, 0x7f, 0x5b, 0xa1, 0x83, 0xa7,
  0x71, 0x6d, 0x66, 0x54, 0x69, 0x99, 0x6a, 0xc1, 0x9e, 0x8c, 0x6d, 0x75,
  0x87, 0x75, 0x67, 0x9d, 0x5b, 0x71, 0x7f, 0x69, 0x86, 0x89, 0x62, 0x58,
  0x7c, 0x41, 0x79, 0x84, 0x83, 0x6c, 0x6d, 0x84, 0x87, 0x74, 0x99, 0x94,
  0x7c, 0x79, 0x6e, 0x76, 0x8a, 0x73, 0x79, 0x6b, 0x40, 0xc2, 0x66, 0x90,
  0x63, 0x7f, 0x4d, 0x70, 0x36, 0xb6, 0x76, 0xbd, 0x56, 0x53, 0x12, 0x99,
  0x8d, 0xc4, 0x68, 0xcb, 0x8e, 0x83, 0x53, 0x93, 0x5e, 0x99, 0x68, 0xcd,
  0xa0, 0x92, 0x37, 0xb7, 0x4a, 0x8b, 0x93, 0x8a, 0x7b, 0x8f, 0x42, 0x8b,
  0x3c, 0x59, 0x53, 0x8f, 0x6d, 0x82, 0x36, 0xa8, 0x69, 0x5c, 0x74, 0x80,
  0x76, 0x83, 0x9c, 0x84, 0x8f, 0x2a, 0x58, 0x3c, 0x7b, 0x6d, 0x8f, 0x5e,
  0xaf, 0x34, 0x84, 0x73, 0x7d, 0x73, 0x89, 0x65, 0x9d, 0x39, 0x73, 0x95,
  0x81, 0x90, 0x6f, 0x6f, 0x9b, 0x4a, 0x86, 0x9c, 0x98, 0x9a, 0x7d, 0x5b,
  0x95, 0x47, 0x8d, 0xbb, 0x8d, 0x89, 0x81, 0x7f, 0x6c, 0x91, 0x5d, 0xc6,
  0x63, 0x76, 0x52, 0x56, 0x95, 0x84, 0x70, 0xdb, 0x6e, 0x7e, 0x7f, 0x49,
  0x5a, 0x93, 0x6f, 0xb5, 0x7b, 0x94, 0x7c, 0x81, 0x7f, 0x89, 0x77, 0xaa,
  0x8d, 0x72, 0x96, 0x67, 0x75, 0x7f, 0x6f, 0xab, 0x4e, 0x6f, 0x60, 0x59,
  0x84, 0x83, 0x5f, 0x60, 0x80, 0x56, 0x80, 0x7b, 0x88, 0x9e, 0x88, 0x6e,
  0x85, 0x67, 0x84, 0x70, 0x81, 0x85, 0x62, 0x82, 0x9d, 0x8b, 0x78, 0x6a,
  0x5d, 0xbd, 0x69, 0x8b, 0x6e, 0x72, 0x45, 0x96, 0x1a, 0xbd, 0x72, 0xc9,
  0x74, 0x66, 0x05, 0x7f, 0x85, 0xc8, 0x7a, 0xe0, 0x70, 0x8b, 0x41, 0x95,
  0x7a, 0x99, 0x88, 0xb5, 0x6e, 0x99, 0x65, 0xad, 0x4d, 0x92, 0x7b, 0x97,
  0x63, 0x9f, 0x42, 0x8e, 0x1a, 0x54, 0x76, 0x7e, 0x77, 0xa6, 0x3d, 0xa4,
  0x6d, 0x4c, 0x83, 0x6b, 0x8f, 0x8c, 0x75, 0x7f, 0x8f, 0x51, 0x78, 0x3e,
  0x59, 0x67, 0x9e, 0x70, 0xa1, 0x49, 0x7f, 0x5f, 0x53, 0x64, 0x83, 0x42,
  0xa0, 0x46, 0x6c, 0x76, 0x72, 0x8b, 0x67, 0x84, 0x90, 0x38, 0x6e, 0x8c,
  0x72, 0x83, 0x84, 0x5a, 0x7c, 0x68, 0x5e, 0x9f, 0x69, 0x70, 0x7a, 0x75,
  0x62, 0x77, 0x5f, 0xb9, 0x87, 0x87, 0x56, 0x52, 0x5a, 0xa2, 0x89, 0xb4,
  0x80, 0x70, 0x79, 0x7c, 0x3e, 0x97, 0x5f, 0xbc, 0x8a, 0x8e, 0x6a, 0x44,
  0x7a, 0x8d, 0x5e, 0xb7, 0x5c, 0x8b, 0x61, 0x4f, 0x85, 0x74, 0x6a, 0xa7,
  0x6f, 0x83, 0x5b, 0x51, 0x8f, 0x86, 0x46, 0x53, 0x5e, 0x47, 0x8a, 0x6f,
  0x8b, 0x58, 0x69, 0x76, 0x8a, 0x87, 0x57, 0x72, 0x67, 0xa7, 0x90, 0x83,
  0x92, 0x73, 0x89, 0x7c, 0x40, 0xc3, 0xa0, 0x9c, 0x87, 0x85, 0x51, 0x8e,
  0x36, 0xd9, 0x7a, 0xc7, 0x7d, 0x66, 0x14, 0x96, 0x71, 0xc7, 0x6b, 0xad,
  0x7a, 0x7f, 0x42, 0xb1, 0x7b, 0xa0, 0x6f, 0xd0, 0x77, 0xa2, 0x48, 0xb1,
  0x52, 0x84, 0x9d, 0x7f, 0x74, 0x87, 0x36, 0xb0, 0x12, 0x64, 0x74, 0x75,
  0x8a, 0x99, 0x45, 0xc2, 0x59, 0x3c, 0x65, 0x62, 0x81, 0x7c, 0x94, 0x71,
  0x84, 0x22, 0x5f, 0x68, 0x81, 0x76, 0x91, 0x53, 0x89, 0x31, 0x63, 0x5e,
  0x62, 0x80, 0x85, 0x6c, 0x8f, 0x48, 0x8b, 0x9f, 0x6d, 0x72, 0x68, 0x43,
  0x92, 0x45, 0x83, 0x9f, 0xa6, 0x8a, 0x80, 0x7e, 0xa6, 0x48, 0x80, 0xd3,
  0x70, 0x75, 0x79, 0x77, 0x72, 0x7b, 0x79, 0xbb, 0x96, 0x78, 0x52, 0x47,
  0x5e, 0x91, 0x69, 0xcb, 0x56, 0x72, 0x4f, 0x7f, 0x5b, 0x88, 0x4f, 0xc6,
  0x5e, 0x82, 0x7e, 0x4d, 0x6d, 0x7d, 0x6a, 0xc1, 0x67, 0x89, 0x79, 0x72,
  0x89, 0x81, 0x4e, 0xa0, 0x5e, 0x84, 0x6f, 0x68, 0x7c, 0x8f, 0x40, 0x74,
  0x4d, 0x69, 0x64, 0x85, 0x8b, 0x62, 0x96, 0x81, 0x85, 0x60, 0x66, 0x60,
  0x98, 0xa5, 0x64, 0x8a, 0xb4, 0x62, 0x7a, 0x92, 0x5d, 0xc2, 0x7d, 0xa3,
  0x57, 0x78, 0x4f, 0x8b, 0x3a, 0xbc, 0x96, 0xc3, 0x81, 0x65, 0x01, 0x87,
  0x7e, 0xb2, 0x63, 0xd3, 0x98, 0x7f, 0x48, 0xba, 0x7e, 0x97, 0x6d, 0xdd,
  0x7d, 0x92, 0x4b, 0xc4, 0x64, 0x73, 0x97, 0x97, 0x84, 0x94, 0x2f, 0x94,
  0x1c, 0x5d, 0x6e, 0x6f, 0x6c, 0x88, 0x26, 0xc6, 0x55, 0x43, 0x60, 0x7e,
  0xa6, 0x83, 0x8c, 0x6d, 0x87, 0x34, 0x5f, 0x64, 0x93, 0x6a, 0xb1, 0x7d,
  0x9e, 0x36, 0x7f, 0x65, 0x6a, 0x6b, 0x84, 0x53, 0x8f, 0x43, 0x66, 0x92,
  0x6f, 0x8b, 0x5c, 0x69, 0x87, 0x38, 0x90, 0x89, 0x78, 0x83, 0x88, 0x77,
  0x87, 0x53, 0x86, 0xc0, 0x8e, 0x86, 0x80, 0x61, 0x58, 0x87, 0x59, 0xca,
  0x7c, 0x7f, 0x41, 0x64, 0x8f, 0xb7, 0x61, 0xb4, 0x6c, 0x7a, 0x6c, 0x75,
  0x62, 0x81, 0x61, 0xba, 0x5c, 0x73, 0x80, 0x6e, 0x78, 0x72, 0x64, 0xa0,
  0x69, 0x73, 0x97, 0x5a, 0x76, 0x88, 0x6d, 0xa6, 0x41, 0x81, 0x54, 0x71,
  0x8a, 0x99, 0x33, 0x6b, 0x88, 0x63, 0x77, 0x79, 0x6b, 0x6b, 0x61, 0x6b,
  0x85, 0x5f, 0x50, 0x55, 0x7b, 0x8f, 0x7f, 0x80, 0xb4, 0x80, 0x86, 0x9a,
  0x3a, 0xc2, 0x5c, 0x95, 0x4c, 0x69, 0x3f, 0x9f, 0x39, 0xd7, 0x76, 0xbf,
  0x94, 0x62, 0x26, 0xa2, 0x82, 0xbe, 0x64, 0xab, 0x6d, 0x88, 0x3c, 0xbd,
  0x5f, 0x9b, 0x8f, 0xcf, 0x8a, 0x9a, 0x43, 0xd5, 0x5f, 0x95, 0x5b, 0x76,
  0x8e, 0x9b, 0x35, 0x9a, 0x39, 0x76, 0x85, 0x74, 0x59, 0xa1, 0x2b, 0xb5,
  0x4c, 0x39, 0x77, 0x92, 0x91, 0x7d, 0x9a, 0x9e, 0x7d, 0x3e, 0x74, 0x52,
  0x98, 0x59, 0x9f, 0x50, 0x93, 0x2e, 0x8c, 0x68, 0x90, 0x6f, 0x85, 0x49,
  0x8e, 0x2e, 0x59, 0x7d, 0x87, 0x6f, 0x76, 0x52, 0x87, 0x37, 0x7b, 0xb6,
  0x8a, 0x7f, 0x81, 0x70, 0x94, 0x7a, 0x70, 0xa0, 0x97, 0x90, 0x8f, 0x69,
  0x86, 0x78, 0x4a, 0xcd, 0x82, 0x70, 0x53, 0x86, 0x71, 0x9c, 0x6a, 0xc0,
  0x78, 0x80, 0x77, 0x6e, 0x70, 0x83, 0x4a, 0xbb, 0x6f, 0x86, 0x85, 0x41,
  0x66, 0x89, 0x64, 0xa7, 0x8b, 0x6e, 0x50, 0x52, 0x96, 0x9e, 0x4e, 0x97,
  0x5a, 0x85, 0x64, 0x5c, 0x90, 0x86, 0x75, 0x60, 0x71, 0x53, 0x7e, 0x7d,
  0xad, 0x62, 0x8f, 0x7e, 0x8f, 0x62, 0x63, 0x6d, 0x6d, 0x99, 0x8d, 0x94,
  0x72, 0x7a, 0x7d, 0x94, 0x45, 0xd2, 0x81, 0x9e, 0x3d, 0x63, 0x5d, 0xc2,
  0x4d, 0xca, 0x6f, 0xa2, 0xa6, 0x72, 0x06, 0xc0, 0x5d, 0xd0, 0x5f, 0xce,
  0x65, 0x6e, 0x4f, 0xbf, 0x74, 0x9f, 0x76, 0x99, 0x70, 0x97, 0x49, 0xa6,
  0x2d, 0x87, 0x81, 0x68, 0x9f, 0xa7, 0x32, 0xb7, 0x16, 0x76, 0x92, 0x72,
  0x76, 0x94, 0x2d, 0xb8, 0x67, 0x3c, 0x73, 0x88, 0xa2, 0x95, 0x88, 0x7c,
  0x8c, 0x5a, 0x9e, 0x69, 0x5a, 0x67, 0xa1, 0x74, 0xa1, 0x43, 0x85, 0x4d,
  0x8b, 0x7c, 0x7d, 0x65, 0x9c, 0x3f, 0x65, 0x6f, 0x84, 0x7c, 0x78, 0x5f,
  0x94, 0x51, 0x6a, 0x9d, 0x87, 0x87, 0x6e, 0x72, 0xa0, 0x78, 0x6d, 0xa5,
  0x5e, 0x9e, 0x91, 0x67, 0x5d, 0x8b, 0x73, 0xb7, 0x66, 0x92, 0x67, 0x6a,
  0x7b, 0xa3, 0x68, 0xb1, 0x53, 0x89, 0x8f, 0x58, 0x70, 0x8d, 0x64, 0xc5,
  0x84, 0x6c, 0x96, 0x3b, 0x6f, 0x85, 0x4b, 0xc1, 0x62, 0x69, 0x75, 0x3b,
  0x76, 0x86, 0x56, 0x87, 0x5e, 0x80, 0x65, 0x64, 0x91, 0x9a, 0x70, 0x4c,
  0x7a, 0x4b, 0x81, 0x7e, 0x81, 0x7b, 0x76, 0x59, 0x87, 0x61, 0x73, 0x9e,
  0x5f, 0xa3, 0x79, 0x7a, 0x90, 0x65, 0x8c, 0xb0, 0x3d, 0xcf, 0xa0, 0x8f,
  0x4a, 0x56, 0x5a, 0x8e, 0x47, 0xca, 0x6a, 0xb4, 0x82, 0x5b, 0x09, 0xb1,
  0x76, 0x97, 0x93, 0xd5, 0x79, 0x6e, 0x4d, 0xd4, 0x82, 0xa7, 0x71, 0xa5,
  0x5e, 0x7e, 0x4f, 0xb8, 0x2d, 0x63, 0x6d, 0x88, 0x90, 0x96, 0x53, 0xa3,
  0x22, 0x6b, 0x7f, 0x7c, 0xa4, 0xa6, 0x3b, 0xd7, 0x45, 0x3c, 0x6b, 0x87,
  0x6e, 0x97, 0x76, 0x9f, 0x94, 0x47, 0x75, 0x45, 0x7f, 0x5f, 0x9d, 0x61,
  0xa7, 0x30, 0x73, 0x74, 0x8a, 0x6f, 0xaa, 0x7b, 0xb7, 0x25, 0x7f, 0x7e,
  0x70, 0x75, 0x95, 0x5f, 0x90, 0x4b, 0x59, 0x96, 0x82, 0x69, 0x83, 0x74,
  0x96, 0x57, 0x82, 0xa2, 0x74, 0x8d, 0x83, 0x65, 0x6e, 0x8a, 0x56, 0x9f,
  0x7a, 0x6b, 0x71, 0x5f, 0x73, 0x9b, 0x53, 0xc9, 0x90, 0x85, 0x95, 0x4f,
  0x73, 0x85, 0x5d, 0xb7, 0x81, 0x6b, 0xa6, 0x43, 0x82, 0x6b, 0x59, 0xae,
  0x7c, 0x7b, 0x60, 0x22, 0x91, 0x95, 0x71, 0xb3, 0x71, 0x7e, 0x70, 0x7e,
  0x9f, 0x94, 0x55, 0x74, 0x87, 0x72, 0x64, 0x80, 0x95, 0x8b, 0xa1, 0x89,
  0x65, 0x59, 0x61, 0x6e, 0x9b, 0xa8, 0x53, 0x80, 0x9f, 0x79, 0xad, 0x8c,
  0x6f, 0xc5, 0x81, 0xbb, 0x65, 0x62, 0x3c, 0x80, 0x60, 0xcc, 0x70, 0xc0,
  0x66, 0x4f, 0x03, 0xba, 0x70, 0xc0, 0x93, 0xc1, 0x97, 0x84, 0x2c, 0xa0,
  0x90, 0xa2, 0x9a, 0xbd, 0x81, 0x9f, 0x43, 0x9a, 0x54, 0x79, 0x83, 0x88,
  0xa3, 0xa9, 0x3c, 0xab, 0x16, 0x71, 0x66, 0x4b, 0xab, 0x9e, 0x27, 0xc3,
  0x64, 0x54, 0x70, 0x82, 0x9e, 0x83, 0x89, 0x99, 0x8e, 0x52, 0x74, 0x57,
  0x5b, 0x5f, 0xa6, 0x57, 0xb4, 0x2c, 0x85, 0x39, 0x8b, 0x70, 0xae, 0x4c,
  0xa5, 0x2d, 0x6c, 0x9b, 0x89, 0x76, 0x75, 0x67, 0x6d, 0x53, 0x5f, 0x6f,
  0x66, 0x69, 0x7d, 0x4b, 0x87, 0x67, 0x66, 0x95, 0xa8, 0x95, 0x92, 0x7d,
  0x63, 0x82, 0x55, 0xb7, 0x89, 0x83, 0x8d, 0x78, 0x6b, 0xa0, 0x47, 0xba,
  0x79, 0x86, 0x89, 0x61, 0x8a, 0x89, 0x45, 0xba, 0x46, 0x82, 0x95, 0x4e,
  0x77, 0x8f, 0x4e, 0xc8, 0x54, 0x68, 0x84, 0x51, 0x96, 0xa5, 0x48, 0x99,
  0x56, 0x81, 0x6c, 0x5f, 0x7d, 0x8e, 0x48, 0x44, 0x8e, 0x4f, 0x88, 0x8c,
  0x4c, 0x7f, 0x76, 0x85, 0x67, 0x59, 0x50, 0x5b, 0xaa, 0x96, 0x7a, 0x9d,
  0xb5, 0x66, 0x83, 0xa2, 0x4c, 0xc6, 0x6e, 0x85, 0x4e, 0x40, 0x5d, 0x8d,
  0x4f, 0xc6, 0x6b, 0xa4, 0x79, 0x3b, 0x3b, 0xa2, 0x5f, 0xa0, 0x79, 0xb4,
  0x6a, 0x78, 0x40, 0xc2, 0xad, 0x91, 0x94, 0xc3, 0x9b, 0xa0, 0x67, 0x96,
  0x45, 0x6e, 0x6a, 0x6b, 0x78, 0xa4, 0x41, 0x8a, 0x36, 0x70, 0x8b, 0x5c,
  0x69, 0x9c, 0x4c, 0xd6, 0x5f, 0x3e, 0x70, 0x6f, 0x83, 0x7c, 0xa1, 0x85,
  0x94, 0x55, 0x65, 0x4e, 0x83, 0x61, 0xa1, 0x55, 0xb6, 0x1f, 0x6f, 0x42,
  0x86, 0x65, 0xb3, 0x62, 0xa0, 0x34, 0x6e, 0x7e, 0x7b, 0x7e, 0x98, 0x55,
  0x9c, 0x2b, 0x5a, 0x6b, 0x84, 0x5c, 0x7f, 0x52, 0x9d, 0x65, 0x6f, 0xa0,
  0x7f, 0x9a, 0x9d, 0x5b, 0x81, 0x82, 0x5a, 0x9a, 0x5b, 0x7a, 0x89, 0x4e,
  0x79, 0x8e, 0x45, 0xae, 0x4d, 0x81, 0x99, 0x79, 0x59, 0xa8, 0x61, 0xb7,
  0x89, 0x8c, 0x86, 0x4d, 0x68, 0x80, 0x5f, 0xe2, 0x52, 0x61, 0x83, 0x59,
  0x8d, 0x7f, 0x74, 0xc4, 0x71, 0x86, 0x7d, 0x64, 0x8e, 0x8f, 0x35, 0x76,
  0x65, 0x58, 0x8d, 0x88, 0xa4, 0x82, 0x88, 0x7e, 0x81, 0x45, 0x83, 0x67,
  0x7f, 0xb3, 0x6e, 0x91, 0xa3, 0x64, 0x7e, 0x93, 0x5f, 0xb8, 0x8b, 0x98,
  0x54, 0x4c, 0x58, 0x94, 0x30, 0xae, 0x78, 0xbe, 0x6b, 0x4f, 0x17, 0x8a,
  0x68, 0x9c, 0x63, 0xcd, 0x7f, 0x85, 0x3e, 0x8a, 0x9f, 0x99, 0x98, 0xaf,
  0x7b, 0x87, 0x76, 0xc5, 0x3f, 0x80, 0x95, 0x7d, 0xa4, 0x97, 0x23, 0xb5,
  0x59, 0x58, 0x56, 0x72, 0x92, 0xab, 0x40, 0xab, 0x67, 0x47, 0x5a, 0x64,
  0x6f, 0x86, 0x9f, 0xb5, 0x93, 0x3c, 0x7d, 0x60, 0x9e, 0x6d, 0xaa, 0x6d,
  0xb3, 0x2b, 0x7a, 0x82, 0xa0, 0x5a, 0xa0, 0x59, 0xa5, 0x23, 0x87, 0x88,
  0x84, 0x61, 0x83, 0x59, 0x97, 0x58, 0x69, 0x72, 0x58, 0x84, 0x86, 0x6d,
  0x82, 0x5c, 0x5b, 0x8e, 0x64, 0x8a, 0x95, 0x3a, 0x85, 0x74, 0x73, 0xad,
  0x51, 0x7b, 0x9d, 0x58, 0x5e, 0x8d, 0x47, 0xa5, 0x89, 0x84, 0x8a, 0x5f,
  0x77, 0xa8, 0x4c, 0xb0, 0x4e, 0x6e, 0x8b, 0x5b, 0x61, 0x73, 0x47, 0xb3,
  0x58, 0x8b, 0x6c, 0x71, 0x74, 0x91, 0x49, 0xac, 0x75, 0x79, 0x76, 0x6c,
  0x98, 0x97, 0x7c, 0x68, 0x7a, 0x4d, 0x83, 0x78, 0x67, 0x7d, 0x7c, 0x6e,
  0x6c, 0x51, 0x74, 0x9d, 0x96, 0xbf, 0x81, 0x78, 0x9e, 0x50, 0xa0, 0x82,
  0x71, 0xc3, 0x62, 0x7e, 0x45, 0x52, 0x73, 0x92, 0x61, 0xb8, 0x62, 0x9a,
  0x65, 0x27, 0x1b, 0x99, 0x74, 0xbc, 0x8f, 0xaf, 0x79, 0x7f, 0x54, 0x91,
  0x91, 0x8f, 0xa3, 0xb6, 0xa0, 0x86, 0x6c, 0x93, 0x52, 0x96, 0x7b, 0x7c,
  0x89, 0xaf, 0x31, 0xa0, 0x49, 0x52, 0x63, 0x7b, 0xa4, 0xbb, 0x28, 0xab,
  0x55, 0x57, 0x70, 0x6f, 0x5a, 0x8f, 0x83, 0x80, 0x7f, 0x39, 0x6e, 0x78,
  0x58, 0x71, 0xb7, 0x62, 0xaa, 0x22, 0x6a, 0x8b, 0x5f, 0x48, 0x89, 0x6c,
  0x9f, 0x5a, 0x90, 0x90, 0x6b, 0x4d, 0x9b, 0x51, 0xa8, 0x46, 0x65, 0x69,
  0x7e, 0x7c, 0x9d, 0x6f, 0x90, 0x5c, 0x5c, 0x87, 0x61, 0x80, 0x94, 0x6a,
  0x78, 0x90, 0x5d, 0xac, 0x96, 0x6c, 0x86, 0x71, 0x7b, 0x94, 0x4d, 0xb0,
  0x8a, 0x85, 0xaf, 0x6e, 0x84, 0xa4, 0x48, 0xa7, 0x90, 0x75, 0xa3, 0x58,
  0x7f, 0x76, 0x43, 0xd4, 0x6c, 0x67, 0x6f, 0x61, 0x7f, 0x98, 0x5b, 0xb7,
  0x95, 0x66, 0x6f, 0x68, 0x83, 0x97, 0x66, 0x67, 0x9a, 0x51, 0x89, 0x85,
  0xa7, 0x80, 0x71, 0x5c, 0x70, 0x4e, 0x50, 0x8a, 0x75, 0xd4, 0x7d, 0x92,
  0x8c, 0x66, 0xa8, 0xa7, 0x67, 0xc3, 0x6f, 0x68, 0x63, 0x2a, 0x76, 0x76,
  0x56, 0xc1, 0x63, 0xba, 0x47, 0x26, 0x0f, 0xac, 0x75, 0xbb, 0x64, 0xd2,
  0x8b, 0x6e, 0x3c, 0xc2, 0xa0, 0xa8, 0x71, 0xe3, 0x94, 0x91, 0x51, 0x90,
  0x4e, 0x76, 0x83, 0x81, 0xa0, 0xa1, 0x46, 0x99, 0x2c, 0x8f, 0x64, 0x71,
  0x80, 0xb2, 0x4a, 0xca, 0x3a, 0x44, 0x77, 0x6a, 0xa6, 0x8e, 0x96, 0x8e,
  0x77, 0x42, 0x87, 0x97, 0x76, 0x5b, 0xae, 0x51, 0x9d, 0x05, 0x6e, 0x57,
  0x4f, 0x60, 0x87, 0x37, 0x84, 0x32, 0x81, 0x75, 0x5e, 0x58, 0x86, 0x44,
  0xa9, 0x6b, 0x73, 0x4b, 0x8e, 0x6e, 0x8a, 0x77, 0x9f, 0x4b, 0x58, 0x85,
  0x70, 0x7a, 0x96, 0x77, 0x84, 0x7d, 0x75, 0xa0, 0xa0, 0x91, 0x93, 0x6e,
  0x52, 0x8f, 0x44, 0xc4, 0x55, 0x8b, 0x99, 0x6b, 0x76, 0x8f, 0x47, 0xaa,
  0x69, 0x6d, 0x98, 0x3f, 0x87, 0x5a, 0x52, 0xd0, 0x59, 0x76, 0xa2, 0x43,
  0x79, 0x6e, 0x3c, 0x9b, 0x75, 0x6b, 0x6e, 0x50, 0xac, 0x8e, 0x35, 0x5b,
  0x78, 0x73, 0x8c, 0x90, 0x5b, 0x8a, 0x98, 0x6b, 0x56, 0x3f, 0x80, 0xa2,
  0x89, 0x9b, 0x7f, 0x90, 0x8a, 0x4e, 0x88, 0x8b, 0x74, 0xb7, 0x84, 0x69,
  0x73, 0x4e, 0x44, 0x92, 0x63, 0xe6, 0x53, 0xcd, 0x80, 0x26, 0x2d, 0x79,
  0x6c, 0xb1, 0x83, 0xbf, 0x7a, 0x8f, 0x3a, 0x8b, 0xbf, 0xb5, 0x70, 0xb9,
  0x7c, 0x9c, 0x75, 0xa7, 0x47, 0xb4, 0x77, 0x60, 0x70, 0xa9, 0x3c, 0xa2,
  0x23, 0x88, 0x6d, 0x55, 0x98, 0xbf, 0x34, 0xa8, 0x37, 0x7f, 0x86, 0x77,
  0x6c, 0x90, 0x71, 0x86, 0x96, 0x41, 0x9f, 0x87, 0x67, 0x60, 0xab, 0x78,
  0xb3, 0x29, 0x63, 0x6f, 0x6d, 0x55, 0xa3, 0x5f, 0xa9, 0x2d, 0x7c, 0x70,
  0x97, 0x62, 0x76, 0x45, 0xc3, 0x77, 0x6f, 0x69, 0x6c, 0x82, 0x91, 0x7c,
  0xa0, 0x72, 0x76, 0x80, 0x71, 0x73, 0x7b, 0x84, 0x74, 0x9d, 0x65, 0x8a,
  0x75, 0x8f, 0x78, 0x4c, 0x87, 0x6c, 0x48, 0x83, 0x79, 0x89, 0xb4, 0x56,
  0x8a, 0xa9, 0x47, 0xb7, 0x52, 0x55, 0xbf, 0x49, 0x7f, 0x75, 0x61, 0xcb,
  0x73, 0x6f, 0xad, 0x68, 0x92, 0x93, 0x5a, 0x92, 0x82, 0x64, 0x70, 0x52,
  0x91, 0x86, 0x50, 0x4f, 0x99, 0x5c, 0x79, 0x8a, 0x58, 0xae, 0x76, 0x67,
  0x75, 0x2d, 0x44, 0x92, 0x78, 0x95, 0x7d, 0x72, 0x81, 0x4d, 0x81, 0xb0,
  0xa1, 0xd4, 0x89, 0x7d, 0x7a, 0x39, 0x71, 0x9f, 0x84, 0xba, 0x4f, 0x99,
  0x7b, 0x4d, 0x38, 0x9b, 0x89, 0x93, 0x71, 0xb4, 0x95, 0x49, 0x2e, 0x81,
  0xbb, 0xc7, 0x7e, 0xa9, 0x7b, 0x88, 0x61, 0x9d, 0x6c, 0x89, 0x7f, 0x65,
  0x8a, 0xaa, 0x48, 0x7f, 0x16, 0x90, 0x88, 0x80, 0x86, 0x93, 0x66, 0x8b,
  0x3d, 0x5c, 0x81, 0x6d, 0x74, 0x73, 0x83, 0x7f, 0x68, 0x53, 0x83, 0x9a,
  0x89, 0x58, 0xaf, 0x5e, 0xac, 0x26, 0x8f, 0x6f, 0x6d, 0x2c, 0x78, 0x4d,
  0xbd, 0x40, 0xaa, 0x88, 0x46, 0x5d, 0x6f, 0x4c, 0xaf, 0x5d, 0x85, 0x68,
  0xaf, 0x6c, 0x8f, 0x5d, 0x9b, 0x87, 0x7b, 0x70, 0x6f, 0x7a, 0x9e, 0x61,
  0x9e, 0x9a, 0x50, 0x98, 0x6f, 0x80, 0x81, 0x6d, 0x6b, 0x84, 0x41, 0xa6,
  0x83, 0x79, 0xad, 0x89, 0x8a, 0xb0, 0x64, 0x93, 0x4b, 0x70, 0x96, 0x79,
  0x64, 0x66, 0x54, 0xbf, 0x4b, 0x68, 0xac, 0x5a, 0x88, 0x89, 0x53, 0xc4,
  0x8e, 0x72, 0x91, 0x62, 0x9d, 0x9a, 0x75, 0x5a, 0x83, 0x69, 0x92, 0x80,
  0x5b, 0x76, 0x53, 0x83, 0x51, 0x3c, 0x84, 0x72, 0x63, 0x80, 0x64, 0x6f,
  0x5e, 0x4f, 0x87, 0x7c, 0x8e, 0xc5, 0x8a, 0x4e, 0x39, 0x6b, 0x5e, 0x83,
  0x56, 0xcd, 0x79, 0xa0, 0x3d, 0x4c, 0x49, 0x88, 0x92, 0xac, 0x67, 0xad,
  0x74, 0x63, 0x43, 0x7c, 0xbc, 0x9f, 0x7d, 0xaa, 0x6b, 0x90, 0x7b, 0x5e,
  0x65, 0x91, 0x6b, 0x7e, 0x8d, 0xb4, 0x5e, 0x65, 0x0c, 0x57, 0x6d, 0x64,
  0x77, 0xbb, 0x3b, 0x86, 0x29, 0x89, 0x69, 0x7f, 0x74, 0x9d, 0x70, 0x9c,
  0x8d, 0x7e, 0x75, 0x84, 0x6c, 0x6c, 0xa0, 0x5e, 0x95, 0x6a, 0x72, 0x50,
  0x45, 0x4a, 0x5e, 0x3f, 0x94, 0x4d, 0x93, 0x90, 0x6b, 0x43, 0x46, 0x66,
  0xb4, 0x69, 0xa2, 0x69, 0x61, 0x55, 0x43, 0x6b, 0x8b, 0x81, 0x7f, 0x53,
  0x71, 0x65, 0x53, 0x6b, 0x90, 0x94, 0x55, 0xa8, 0xa1, 0x92, 0x80, 0x7e,
  0x63, 0x80, 0x82, 0xc7, 0x8a, 0x79, 0x7d, 0x78, 0xb4, 0xa5, 0x6b, 0xce,
  0x84, 0x71, 0x8d, 0x7a, 0xbf, 0xad, 0x4c, 0x9f, 0x76, 0x71, 0x97, 0x68,
  0xb6, 0xb0, 0x73, 0xc4, 0x7d, 0x6b, 0x78, 0x6c, 0x9b, 0x78, 0x48, 0x95,
  0xa7, 0x43, 0x6b, 0x72, 0x6c, 0x70, 0x82, 0x66, 0x5a, 0x74, 0x58, 0x88,
  0x6b, 0x5b, 0xa6, 0x85, 0x74, 0x7b, 0x7b, 0x75, 0x82, 0x68, 0x87, 0x69,
  0x67, 0x6f, 0x6c, 0x72, 0x59, 0x8c, 0x8e, 0x94, 0x3b, 0x7c, 0x30, 0xa2,
  0x7d, 0xb9, 0x66, 0x6e, 0x7b, 0x71, 0x48, 0x74, 0x7f, 0x80, 0x84, 0x64,
  0x83, 0x78, 0x7a, 0x65, 0x5f, 0xa0, 0x72, 0x6d, 0x91, 0xbe, 0x59, 0x9d,
  0x12, 0x88, 0x6c, 0x83, 0x6f, 0xb1, 0x61, 0x95, 0x5e, 0x6d, 0x51, 0x7d,
  0x80, 0x95, 0x95, 0xa2, 0x73, 0x83, 0x94, 0x6d, 0x78, 0x4c, 0x80, 0x5a,
  0x83, 0x59, 0x8c, 0x80, 0x4e, 0x67, 0x39, 0x4e, 0x6b, 0x64, 0x61, 0x72,
  0x5e, 0x89, 0x34, 0x7c, 0x77, 0x7d, 0x72, 0x72, 0x91, 0x88, 0x5c, 0x83,
  0xa6, 0x91, 0x84, 0x6f, 0x5f, 0x96, 0x82, 0x63, 0x88, 0x9e, 0x70, 0xb3,
  0x91, 0x73, 0x7c, 0x75, 0x86, 0x81, 0x6a, 0xba, 0x7a, 0x8a, 0xa2, 0x87,
  0xa6, 0x9f, 0x6c, 0x97, 0x9c, 0x67, 0x92, 0x5b, 0x9e, 0x90, 0x7a, 0xb9,
  0x65, 0x61, 0x93, 0x80, 0xb9, 0x96, 0x49, 0xb0, 0x58, 0x52, 0x97, 0x80,
  0x9d, 0xac, 0x9a, 0x85, 0xa3, 0x5c, 0x81, 0x51, 0x6e, 0x8d, 0x8d, 0x80,
  0x7f, 0x82, 0x63, 0x76, 0x84, 0x67, 0x77, 0x7d, 0xa7, 0x91, 0x62, 0x62,
  0xa1, 0x71, 0x93, 0x7b, 0xab, 0x6e, 0x59, 0x91, 0x92, 0x6e, 0x92, 0x6c,
  0x96, 0x69, 0x6c, 0x78, 0x5b, 0x84, 0x91, 0x68, 0x76, 0x62, 0x79, 0x9a,
  0x77, 0x89, 0x90, 0x84, 0x98, 0x70, 0x60, 0x94, 0x8b, 0x6a, 0x84, 0x75,
  0x4d, 0x93, 0x70, 0x8c, 0x76, 0x73, 0x83, 0x6b, 0x7c, 0x6e, 0x82, 0x82,
  0x59, 0x6e, 0x8c, 0x9e, 0xa4, 0x5a, 0x63, 0x88, 0x66, 0x7f, 0xa5, 0x92,
  0x90, 0x8b, 0x83, 0x7f, 0x76, 0x78, 0x98, 0x6a, 0x7c, 0x72, 0x96, 0x92,
  0x4e, 0x7d, 0x92, 0x81, 0x94, 0x86, 0x64, 0x89, 0x80, 0x79, 0x93, 0x79,
  0x6c, 0x89, 0x86, 0x81, 0x89, 0x5d, 0x8d, 0x8f, 0x5c, 0x81, 0x8a, 0x68,
  0x7c, 0x76, 0x9b, 0x8f, 0x49, 0x7b, 0x56, 0x62, 0x75, 0x62, 0x9f, 0x6f,
  0x80, 0x81, 0x5e, 0x64, 0x8e, 0x6c, 0x81, 0x86, 0x8c, 0x91, 0x62, 0x93,
  0x8e, 0x6f, 0x97, 0x8a, 0x71, 0x67, 0x7e, 0x5d, 0x89, 0x7a, 0xa8, 0x8f,
  0x9e, 0x94, 0x5f, 0x78, 0x87, 0x7c, 0x7a, 0x51, 0x77, 0x97, 0x6c, 0x71,
  0x4c, 0x8c, 0x7f, 0x8d, 0x6a, 0x7e, 0x69, 0x5e, 0x6d, 0x84, 0x8d, 0x84,
  0x88, 0x7e, 0x6a, 0x8b, 0x87, 0x88, 0x88, 0x79, 0x8a, 0x86, 0x96, 0x70,
  0x93, 0x84, 0x8d, 0x83, 0x99, 0x6f, 0x8d, 0x81, 0x6a, 0xa3, 0x79, 0x92,
  0x7f, 0x6a, 0x8c, 0x74, 0x7f, 0x8e, 0x88, 0x7a, 0x6c, 0x8f, 0x69, 0x8c,
  0x7e, 0x8c, 0x8c, 0x70, 0x97, 0x76, 0x89, 0x6c, 0x88, 0x8a, 0x89, 0x5f,
  0x6f, 0x7f, 0x7c, 0x6d, 0x9a, 0x7c, 0x84, 0x79, 0x5d, 0x86, 0x6b, 0x6b,
  0x66, 0xa1, 0x8b, 0x68, 0x67, 0x7d, 0x79, 0x8c, 0x7a, 0x7f, 0x80, 0x98,
  0x91, 0x5f, 0x61, 0x5a, 0xa2, 0x80, 0x6f, 0x8b, 0x6a, 0x88, 0x72, 0x6a,
  0x5f, 0x7a, 0x96, 0x69, 0x83, 0x70, 0x83, 0x85, 0x78, 0x7f, 0x79, 0x84,
  0x8e, 0x7c, 0x72, 0x71, 0x6a, 0x6b, 0x92, 0x91, 0x7b, 0x8e, 0xa7, 0x6e,
  0x70, 0x66, 0x89, 0x69, 0x7f, 0x56, 0x6b, 0xac, 0x7c, 0x70, 0xa1, 0x62,
  0x9e, 0x74, 0x5d, 0x62, 0x85, 0x6a, 0x78, 0x87, 0x76, 0x7b, 0x70, 0x75,
  0x79, 0x76, 0x8a, 0x73, 0x4e, 0x86, 0x5c, 0x87, 0x87, 0x75, 0x72, 0x9f,
  0x62, 0x9d, 0x57, 0x7c, 0xa2, 0x95, 0x7e, 0x82, 0x5f, 0x76, 0x79, 0x92,
  0xa1, 0x87, 0x7c, 0x91, 0x59, 0x90, 0x7c, 0x84, 0x7d, 0xad, 0x4f, 0x8c,
  0x75, 0x73, 0x69, 0x7a, 0x87, 0xa6, 0x8a, 0x87, 0x6f, 0x8e, 0x82, 0x7f,
  0x90, 0xa4, 0x60, 0x60, 0x64, 0x87, 0x6a, 0x5d, 0xa9, 0x9d, 0x5c, 0x79,
  0x92, 0x98, 0x9d, 0x62, 0x9d, 0x8b, 0x59, 0x66, 0x8a, 0x52, 0x71, 0x9d,
  0xa6, 0x86, 0x82, 0x4b, 0x73, 0x75, 0x7a, 0x73, 0xac, 0x8f, 0x8f, 0x67,
  0x90, 0x79, 0x90, 0x57, 0x8b, 0x87, 0x63, 0x6b, 0x85, 0x56, 0x78, 0x65,
  0x82, 0x82, 0x7e, 0x5c, 0x83, 0x68, 0x68, 0x88, 0x85, 0x91, 0x71, 0x5d,
  0x65, 0x46, 0xa7, 0x54, 0x86, 0x88, 0x5c, 0x89, 0x66, 0x96, 0x57, 0x55,
  0x7d, 0x8d, 0x81, 0x6e, 0x73, 0x83, 0x8b, 0x92, 0x84, 0x7b, 0x7e, 0x5d,
  0x81, 0x8f, 0x96, 0x7a, 0x78, 0x6c, 0x59, 0x54, 0xa3, 0x84, 0x8a, 0x82,
  0xab, 0x77, 0x86, 0x6b, 0x71, 0x68, 0x5c, 0xa4, 0x9b, 0x7d, 0x65, 0x8c,
  0x6c, 0x85, 0x7f, 0x52, 0x74, 0x7d, 0x68, 0x58, 0x7f, 0x5e, 0x94, 0x6a,
  0x83, 0x81, 0x77, 0x98, 0x4c, 0x73, 0x66, 0x8d, 0x7c, 0xa4, 0x74, 0x7b,
  0x6b, 0x8a, 0x78, 0xa2, 0x6e, 0x88, 0x6c, 0x99, 0x49, 0x7f, 0x6b, 0x76,
  0xa6, 0x87, 0x57, 0xad, 0x63, 0x73, 0x7b, 0x6c, 0x99, 0xb8, 0x47, 0x7e,
  0x99, 0x7c, 0x85, 0x7f, 0xa7, 0xab, 0x65, 0x77, 0x7b, 0x7a, 0x6b, 0x5a,
  0xaa, 0x9c, 0x53, 0x7c, 0x55, 0x8d, 0x99, 0x7d, 0xb9, 0x99, 0x77, 0x6b,
  0x79, 0x82, 0xc0, 0x68, 0x9f, 0x77, 0x93, 0x80, 0x67, 0x8a, 0xc2, 0x71,
  0xac, 0x8b, 0x7d, 0x7a, 0x8f, 0x45, 0x79, 0x68, 0x87, 0x84, 0x6a, 0x82,
  0x6e, 0x73, 0x62, 0x71, 0x84, 0x71, 0x76, 0x6b, 0x8c, 0x64, 0x76, 0x71,
  0x47, 0x87, 0x7f, 0x71, 0x78, 0x52, 0x7c, 0x7b, 0x7d, 0x9c, 0x66, 0x98,
  0x77, 0x6c, 0x8b, 0x92, 0x75, 0xa1, 0x62, 0x9c, 0xa0, 0x88, 0x88, 0x6a,
  0x6f, 0x7b, 0x5d, 0x70, 0x5d, 0x8c, 0x63, 0x8c, 0x73, 0x60, 0x5f, 0x61,
  0x77, 0x8d, 0x8b, 0x74, 0x75, 0x6f, 0x6c, 0x87, 0x87, 0x79, 0x9d, 0x74,
  0xa6, 0x5b, 0x85, 0x6d, 0x69, 0x92, 0x63, 0x94, 0x74, 0x6b, 0x5c, 0x65,
  0x77, 0x77, 0x73, 0x5d, 0x74, 0x84, 0x71, 0x8a, 0x7f, 0x8e, 0x84, 0x6a,
  0x72, 0x85, 0x70, 0x81, 0x88, 0x5c, 0xa3, 0x54, 0x8d, 0x98, 0x6c, 0x8a,
  0x92, 0x72, 0x86, 0x8d, 0x7d, 0x9d, 0x76, 0xc9, 0x9e, 0x5d, 0x83, 0x93,
  0x8f, 0xba, 0x60, 0x9c, 0x6a, 0x5f, 0x87, 0x3d, 0x80, 0xb9, 0x6f, 0x7c,
  0x9b, 0x88, 0x94, 0x8a, 0xb1, 0xb1, 0x7b, 0x7b, 0x7b, 0x81, 0xb4, 0x76,
  0xc9, 0x84, 0x4d, 0x78, 0x9d, 0x67, 0xdf, 0x6f, 0xc8, 0x68, 0x81, 0x6a,
  0x51, 0x84, 0xb0, 0x62, 0xa9, 0x81, 0x80, 0x7d, 0x69, 0x6a, 0x6b, 0x90,
  0x75, 0x75, 0x77, 0x6e, 0x68, 0x7e, 0x83, 0x59, 0x70, 0x7e, 0x70, 0x85,
  0x76, 0x76, 0x53, 0x54, 0x53, 0xa2, 0x5e, 0x7c, 0x6a, 0x44, 0x8d, 0x6d,
  0x45, 0xc1, 0x62, 0x76, 0x7d, 0x80, 0x90, 0x8f, 0x63, 0xa4, 0x74, 0xae,
  0x87, 0x68, 0x91, 0x7e, 0x4d, 0x8f, 0x56, 0x69, 0x6c, 0x60, 0x72, 0x99,
  0x73, 0x63, 0x76, 0x71, 0x7c, 0x82, 0x83, 0x69, 0x77, 0x80, 0x66, 0x8d,
  0x98, 0x72, 0x6b, 0x4a, 0x8f, 0x6e, 0x6f, 0x82, 0x71, 0x63, 0x74, 0x9c,
  0x74, 0x5b, 0x69, 0x78, 0x75, 0x70, 0x5a, 0x60, 0x71, 0x8f, 0x75, 0x66,
  0x73, 0x60, 0x84, 0x87, 0x95, 0x86, 0x88, 0x7c, 0x6f, 0x88, 0x8c, 0x9a,
  0x6b, 0x9c, 0x50, 0x7b, 0x9d, 0x80, 0x60, 0x81, 0x48, 0xa8, 0x61, 0xd4,
  0x82, 0x71, 0x8d, 0x9e, 0x5d, 0xb9, 0x75, 0x90, 0x9d, 0x84, 0x8d, 0x67,
  0x85, 0xb4, 0x70, 0x76, 0x50, 0x87, 0x87, 0x59, 0x9b, 0x81, 0x74, 0x68,
  0x63, 0x9b, 0xdb, 0x5a, 0xbc, 0x71, 0x5c, 0x80, 0x83, 0x5d, 0xce, 0x82,
  0xc1, 0xa1, 0x77, 0x5e, 0x86, 0x5e, 0xc6, 0x6b, 0xa9, 0xa1, 0x7a, 0x66,
  0x65, 0x89, 0x8b, 0x50, 0x7d, 0x98, 0x8d, 0x85, 0x94, 0x79, 0x7b, 0x98,
  0x49, 0x79, 0x7c, 0x6a, 0x6c, 0x8b, 0x76, 0x88, 0x3f, 0x87, 0x5e, 0x68,
  0x58, 0x47, 0x85, 0x94, 0x5e, 0x95, 0x52, 0x89, 0x5f, 0x68, 0x83, 0x7a,
  0x4a, 0xaf, 0x4f, 0x80, 0x99, 0x7b, 0x53, 0x61, 0x47, 0x8b, 0x6a, 0x63,
  0x6b, 0x5e, 0x6a, 0x7e, 0x43, 0x85, 0x65, 0x80, 0x66, 0x83, 0x9a, 0x59,
  0x7c, 0x75, 0x6f, 0x6e, 0x71, 0x6a, 0x8b, 0x60, 0x59, 0x56, 0x63, 0x75,
  0x95, 0x7f, 0x9c, 0x62, 0x69, 0x72, 0x57, 0x74, 0x64, 0x75, 0x68, 0x5f,
  0x86, 0x80, 0x5b, 0x6a, 0x7a, 0x86, 0x9f, 0x85, 0x81, 0x73, 0x6b, 0x98,
  0x5f, 0x7f, 0x59, 0x7b, 0x7d, 0xa4, 0x6e, 0x9f, 0x63, 0x85, 0x67, 0x96,
  0x35, 0xbf, 0x4e, 0xdb, 0x5f, 0x5e, 0xd3, 0x69, 0x7e, 0xb9, 0x4b, 0x77,
  0x6b, 0x74, 0xa1, 0x5f, 0x83, 0xc4, 0x66, 0x63, 0x6f, 0x7c, 0x97, 0x82,
  0xa0, 0xa3, 0x4d, 0x6f, 0x80, 0x84, 0xd2, 0x6b, 0xc2, 0x76, 0x6d, 0x75,
  0x68, 0x69, 0xf2, 0x38, 0xdc, 0x87, 0x61, 0x49, 0x5b, 0x4e, 0xc0, 0x51,
  0xa1, 0x93, 0x75, 0x5d, 0x73, 0x76, 0x7a, 0x85, 0x7a, 0xa8, 0x62, 0x86,
  0x7c, 0x98, 0x75, 0x6b, 0x3f, 0x8b, 0x6c, 0x76, 0x8a, 0x79, 0x71, 0x55,
  0x49, 0x8b, 0x61, 0x4f, 0xa4, 0x78, 0x66, 0x54, 0x73, 0xae, 0x76, 0x72,
  0x88, 0x7a, 0x7f, 0x78, 0x3c, 0x8f, 0x47, 0x81, 0x83, 0x8f, 0x73, 0x76,
  0x36, 0x91, 0x6a, 0x79, 0x9d, 0x63, 0x70, 0x9c, 0x56, 0x84, 0x5d, 0x85,
  0x74, 0x76, 0x60, 0x69, 0x6c, 0x7a, 0x7b, 0x75, 0x69, 0x6f, 0x82, 0x74,
  0x54, 0x71, 0x7a, 0x73, 0x84, 0x52, 0x7c, 0x76, 0x74, 0x73, 0x62, 0x7e,
  0x77, 0x77, 0x7d, 0x6e, 0x74, 0x6c, 0x61, 0x81, 0x71, 0x9d, 0x81, 0x73,
  0xa2, 0x90, 0x7b, 0x9b, 0x80, 0x8e, 0x4b, 0x5b, 0x5f, 0x95, 0x57, 0x9f,
  0x9e, 0x7a, 0x42, 0x74, 0x3d, 0xc2, 0x58, 0xd9, 0x97, 0x63, 0xd2, 0x5b,
  0x93, 0xaf, 0x56, 0x87, 0x8b, 0x7b, 0xaf, 0x49, 0x70, 0xac, 0x42, 0x50,
  0xa6, 0x6e, 0x9f, 0x68, 0x8f, 0x95, 0x6c, 0x60, 0x86, 0x7b, 0xc6, 0x6a,
  0xc1, 0x89, 0x7c, 0x75, 0x86, 0x77, 0xd9, 0x7c, 0xb5, 0x8a, 0x72, 0x41,
  0x99, 0x74, 0xc8, 0x56, 0xa9, 0x8f, 0x88, 0x36, 0x73, 0x92, 0x84, 0x79,
  0x74, 0x9e, 0x4b, 0x7e, 0x5c, 0x92, 0x60, 0x7e, 0x51, 0x82, 0x61, 0x75,
  0x84, 0x9a, 0x70, 0x99, 0x4d, 0x94, 0x73, 0x68, 0x73, 0x77, 0x7f, 0x8c,
  0x54, 0xbb, 0x48, 0x60, 0x83, 0x89, 0x7b, 0x4b, 0x35, 0xaf, 0x58, 0x9e,
  0x9b, 0x7f, 0x70, 0x5e, 0x5d, 0xa6, 0x68, 0x77, 0x64, 0x6e, 0x4e, 0x86,
  0x6b, 0x91, 0x6d, 0x90, 0x58, 0x9d, 0x58, 0x90, 0x50, 0x8a, 0x6e, 0x8e,
  0x7c, 0x7b, 0x9d, 0x90, 0x71, 0x61, 0x48, 0x5b, 0x75, 0x7f, 0x81, 0x5e,
  0x6c, 0x68, 0x65, 0x94, 0x94, 0x86, 0x7e, 0x5a, 0x7d, 0x5a, 0x6a, 0x77,
  0x6a, 0x89, 0x80, 0x85, 0x9e, 0x98, 0x52, 0x9b, 0x7f, 0x7b, 0xa7, 0x79,
  0x4e, 0x94, 0x70, 0xaa, 0x56, 0x8f, 0x63, 0x84, 0x55, 0xa6, 0x49, 0xe2,
  0x7e, 0x62, 0xb6, 0x71, 0xa8, 0xa2, 0x4f, 0x7e, 0x6f, 0x62, 0xce, 0x7a,
  0x9d, 0xaf, 0x67, 0x4b, 0x81, 0x6d, 0xb8, 0x56, 0x7d, 0x9c, 0x50, 0x7c,
  0x7d, 0x81, 0xc7, 0x5c, 0xcc, 0x86, 0x59, 0x86, 0x86, 0x80, 0xc2, 0x2a,
  0xd0, 0x70, 0x79, 0x24, 0x8a, 0x7a, 0xd0, 0x6d, 0xc3, 0x98, 0x93, 0x40,
  0x6a, 0xa5, 0x96, 0x55, 0x8a, 0x92, 0x73, 0x52, 0x65, 0x9d, 0x78, 0x85,
  0x55, 0x93, 0x62, 0x85, 0x70, 0x83, 0x7e, 0x9e, 0x5c, 0x8f, 0x73, 0x70,
  0x85, 0x63, 0x7a, 0x72, 0x64, 0xc9, 0x77, 0x66, 0x83, 0x6b, 0x75, 0x81,
  0x5a, 0xb6, 0x53, 0x6b, 0x7f, 0x71, 0x65, 0xa2, 0x53, 0x95, 0x61, 0x53,
  0x8e, 0x6e, 0x6a, 0x97, 0x4e, 0x70, 0x66, 0x6e, 0x80, 0x8e, 0x7a, 0x6b,
  0x6a, 0x91, 0x73, 0x65, 0x81, 0x7a, 0x8a, 0x8b, 0x5e, 0x6d, 0x58, 0x6f,
  0xa6, 0x83, 0x69, 0x67, 0x79, 0x6e, 0x4e, 0x76, 0x77, 0x7d, 0x86, 0x77,
  0x78, 0x80, 0x78, 0x83, 0x86, 0x98, 0x94, 0x82, 0x95, 0x73, 0x86, 0x94,
  0x5c, 0x85, 0x7f, 0x6b, 0x5d, 0xa9, 0x42, 0x99, 0x87, 0x7c, 0x47, 0x43,
  0x37, 0xb6, 0x48, 0xd1, 0xbf, 0x5b, 0xd6, 0x54, 0x89, 0x9b, 0x51, 0x73,
  0x7d, 0x4e, 0xe3, 0x71, 0x7b, 0xb0, 0x66, 0x5b, 0x6c, 0x76, 0xae, 0x4f,
  0x94, 0x92, 0x57, 0x85, 0x98, 0x6d, 0xbb, 0x4e, 0xc4, 0x98, 0x67, 0x7d,
  0x84, 0x80, 0xc9, 0x42, 0xe2, 0x89, 0x91, 0x1e, 0x8f, 0x69, 0xaf, 0x5c,
  0x9e, 0xa4, 0x92, 0x5f, 0x86, 0xa0, 0xaa, 0x84, 0x7a, 0x86, 0x7e, 0x3b,
  0x6e, 0xb0, 0x62, 0x87, 0x63, 0x8d, 0x88, 0x77, 0x84, 0x8d, 0x8d, 0x7a,
  0x5d, 0x8b, 0x68, 0x6d, 0x6f, 0x7e, 0x74, 0x72, 0x63, 0xb7, 0x3e, 0x71,
  0x67, 0x89, 0x70, 0x6b, 0x40, 0x96, 0x73, 0x85, 0x61, 0x80, 0x6e, 0x83,
  0x54, 0x97, 0x35, 0x4a, 0x72, 0x61, 0x5e, 0x89, 0x72, 0x6f, 0x4f, 0x82,
  0x6e, 0x76, 0x87, 0x6b, 0x65, 0x91, 0x58, 0x5e, 0x52, 0x9b, 0x71, 0x75,
  0x55, 0x76, 0x50, 0x57, 0xad, 0x80, 0x87, 0x94, 0x68, 0x73, 0x57, 0x92,
  0x89, 0x75, 0x77, 0x6f, 0x74, 0x79, 0x62, 0x64, 0x70, 0x83, 0x8a, 0x77,
  0xa5, 0x80, 0x6b, 0x85, 0x5c, 0x7c, 0x6d, 0x53, 0x61, 0x9e, 0x63, 0xa3,
  0x57, 0x7f, 0x40, 0x56, 0x5f, 0xbc, 0x45, 0xc0, 0xa8, 0x5c, 0xce, 0x37,
  0xa4, 0xa3, 0x40, 0x7a, 0x8a, 0x66, 0xd1, 0x4f, 0x96, 0xb3, 0x5e, 0x62,
  0x6b, 0x7d, 0xab, 0x5e, 0xa5, 0x9f, 0x6b, 0x66, 0x84, 0x7e, 0xc6, 0x65,
  0xc3, 0x9c, 0x6a, 0x96, 0x89, 0x9d, 0xc9, 0x3d, 0xb0, 0x83, 0x90, 0x10,
  0x7a, 0x83, 0xca, 0x5c, 0xb3, 0x93, 0x99, 0x54, 0x93, 0x8c, 0x76, 0x6d,
  0x71, 0x92, 0x91, 0x54, 0x52, 0xa3, 0x68, 0x79, 0x52, 0x98, 0x6f, 0x6a,
  0x6f, 0x80, 0x6b, 0x6f, 0x67, 0xad, 0x77, 0x43, 0x97, 0x8a, 0x7e, 0x6a,
  0x6b, 0xc1, 0x4e, 0x63, 0x97, 0x6f, 0x6d, 0x74, 0x48, 0xb3, 0x44, 0x62,
  0x8c, 0x6d, 0x79, 0x79, 0x50, 0x87, 0x4f, 0x50, 0x8e, 0x7c, 0x86, 0x90,
  0x46, 0x74, 0x6d, 0x51, 0x6c, 0x74, 0x8a, 0x90, 0x44, 0xa0, 0x5d, 0x67,
  0xa3, 0x95, 0x61, 0x88, 0x5a, 0x7e, 0x43, 0x60, 0x81, 0x8f, 0x50, 0x74,
  0x71, 0x62, 0x54, 0x7d, 0x63, 0x8a, 0x66, 0x77, 0x7d, 0x70, 0x51, 0x77,
  0x7c, 0x6c, 0x81, 0x6a, 0x95, 0x98, 0x84, 0x92, 0x78, 0x92, 0x69, 0x7a,
  0x69, 0xbe, 0x6c, 0x9f, 0x6a, 0x6a, 0x50, 0x60, 0x3c, 0xba, 0x66, 0xcf,
  0x84, 0x7d, 0xca, 0x40, 0x8d, 0xbc, 0x31, 0x8e, 0x7f, 0x58, 0xd4, 0x47,
  0x94, 0x9b, 0x67, 0x3e, 0x86, 0x72, 0x9a, 0x5d, 0x9e, 0xa5, 0x59, 0x77,
  0xa3, 0x86, 0xac, 0x60, 0xca, 0x90, 0x61, 0x7f, 0x7b, 0x75, 0xb1, 0x44,
  0xac, 0x7c, 0x84, 0x1b, 0x93, 0x8e, 0xbf, 0x2e, 0xaa, 0x91, 0x83, 0x37,
  0x96, 0x96, 0x88, 0x66, 0x80, 0x8a, 0x70, 0x3b, 0x6e, 0xa5, 0x5d, 0x7f,
  0x56, 0x85, 0x78, 0x69, 0x6d, 0x9c, 0x6e, 0x84, 0x50, 0x9e, 0x59, 0x7b,
  0x76, 0x66, 0x65, 0x7c, 0x82, 0xbe, 0x5a, 0x79, 0x77, 0x7f, 0x91, 0x86,
  0x5f, 0x9d, 0x6e, 0x8d, 0x84, 0x66, 0x62, 0x8e, 0x83, 0x91, 0x6c, 0x5a,
  0x65, 0x68, 0x60, 0x69, 0x61, 0x76, 0x68, 0x6a, 0x74, 0x63, 0x76, 0x69,
  0x77, 0x87, 0x51, 0x56, 0x71, 0x79, 0x80, 0x7b, 0x60, 0x75, 0x43, 0x70,
  0x92, 0x8d, 0x8b, 0x79, 0x70, 0x6c, 0x42, 0x80, 0x82, 0x94, 0x85, 0x71,
  0x68, 0x79, 0x5e, 0x85, 0x64, 0x8a, 0x6d, 0x7c, 0x78, 0x78, 0x72, 0x9d,
  0x4d, 0x79, 0x91, 0x87, 0x62, 0xb9, 0x3e, 0xb3, 0x88, 0x5c, 0x55, 0x75,
  0x53, 0xaf, 0x57, 0xcb, 0xd7, 0x68, 0xc8, 0x30, 0x92, 0x95, 0x54, 0x8e,
  0x8c, 0x48, 0xb3, 0x37, 0x67, 0x8e, 0x3f, 0x6d, 0x7a, 0x52, 0x93, 0x5f,
  0xa8, 0x96, 0x66, 0x86, 0xb4, 0x70, 0xbe, 0x42, 0xba, 0x8d, 0x70, 0x89,
  0x73, 0x7c, 0xc2, 0x3a, 0xb3, 0x7a, 0x75, 0x39, 0x76, 0x6a, 0xb6, 0x41,
  0xb6, 0x7e, 0x87, 0x4f, 0x81, 0x8e, 0x95, 0x4e, 0x8b, 0x88, 0x68, 0x61,
  0x71, 0x9c, 0x79, 0x6c, 0x5d, 0xa9, 0x6d, 0x7a, 0x64, 0x92, 0x6d, 0x83,
  0x41, 0xa7, 0x84, 0x51, 0x67, 0x8a, 0x6b, 0x74, 0x64, 0xba, 0x6b, 0x64,
  0x6a, 0x7c, 0x80, 0x89, 0x40, 0xb5, 0x55, 0x93, 0x90, 0x75, 0x74, 0x79,
  0x67, 0xbb, 0x64, 0x6a, 0xa3, 0x74, 0x50, 0x77, 0x66, 0x7e, 0x68, 0x43,
  0xa0, 0x5f, 0x6d, 0x8b, 0x81, 0x93, 0x4e, 0x51, 0xb5, 0x6e, 0x82, 0x74,
  0x7b, 0x80, 0x66, 0x59, 0xb9, 0x83, 0x89, 0xa4, 0x5c, 0x78, 0x4c, 0x96,
  0x89, 0x8d, 0x79, 0x6d, 0x70, 0x7a, 0x54, 0x96, 0x88, 0x8c, 0x79, 0x70,
  0xa0, 0x69, 0x6e, 0x8e, 0x52, 0x73, 0x78, 0x51, 0x65, 0xbd, 0x55, 0xae,
  0x83, 0x88, 0x5c, 0x76, 0x51, 0xad, 0x3a, 0xc0, 0xc3, 0x6f, 0xb2, 0x59,
  0x78, 0xc0, 0x50, 0x81, 0x8d, 0x47, 0xdd, 0x30, 0x8b, 0x99, 0x5a, 0x41,
  0x71, 0x62, 0x87, 0x6a, 0x81, 0x9d, 0x4a, 0x86, 0xa1, 0x72, 0xac, 0x4a,
  0xcb, 0x99, 0x69, 0x74, 0x78, 0x76, 0xd1, 0x2a, 0xd2, 0x78, 0x63, 0x51,
  0x7c, 0x7e, 0xab, 0x3d, 0xc3, 0x80, 0x8f, 0x3a, 0x5a, 0x77, 0x9c, 0x35,
  0x77, 0x8c, 0x97, 0x5b, 0x87, 0x93, 0x6a, 0x67, 0x58, 0x75, 0x77, 0x5f,
  0xa1, 0x9a, 0x64, 0x7e, 0x66, 0xa6, 0x4f, 0x5e, 0xb6, 0x72, 0x5f, 0x59,
  0x62, 0xa3, 0x75, 0x71, 0x62, 0x77, 0x7f, 0x8f, 0x57, 0xc2, 0x49, 0x76,
  0x75, 0x69, 0x61, 0x95, 0x6e, 0x91, 0x72, 0x79, 0x6e, 0x5c, 0x72, 0x6f,
  0x66, 0x7b, 0x59, 0x4f, 0x74, 0x81, 0x8f, 0x70, 0x77, 0x84, 0x38, 0x61,
  0x89, 0x8a, 0x69, 0x79, 0x78, 0x95, 0x6d, 0x6d, 0x82, 0x83, 0x67, 0x6d,
  0x90, 0x81, 0x61, 0x76, 0x94, 0x82, 0x7f, 0x7b, 0x78, 0x6b, 0x4a, 0x96,
  0x71, 0x90, 0x87, 0x7a, 0x75, 0xb7, 0x66, 0x98, 0x5d, 0x7a, 0x79, 0x4a,
  0x68, 0xc2, 0x5c, 0xb6, 0x83, 0x81, 0x50, 0x63, 0x5e, 0xaa, 0x3d, 0xb6,
  0xcc, 0x64, 0xce, 0x6a, 0x97, 0xa4, 0x57, 0x7a, 0x82, 0x5a, 0xc6, 0x3b,
  0x5c, 0xb4, 0x4b, 0x70, 0x5a, 0x40, 0xbb, 0x4d, 0x7e, 0xab, 0x5b, 0x51,
  0x99, 0x77, 0x93, 0x55, 0xa1, 0xae, 0x84, 0x6d, 0x5c, 0x74, 0xd0, 0x3e,
